{
  "version": "1.0",
  "truncation": null,
  "padding": null,
  "added_tokens": [
    {
      "id": 0,
      "content": "<PAD>",
      "single_word": false,
      "lstrip": false,
      "rstrip": false,
      "normalized": false,
      "special": true
    },
    {
      "id": 1,
      "content": "<UNK>",
      "single_word": false,
      "lstrip": false,
      "rstrip": false,
      "normalized": false,
      "special": true
    },
    {
      "id": 2,
      "content": "<BOS>",
      "single_word": false,
      "lstrip": false,
      "rstrip": false,
      "normalized": false,
      "special": true
    },
    {
      "id": 3,
      "content": "<EOS>",
      "single_word": false,
      "lstrip": false,
      "rstrip": false,
      "normalized": false,
      "special": true
    }
  ],
  "normalizer": null,
  "pre_tokenizer": {
    "type": "ByteLevel",
    "add_prefix_space": false,
    "trim_offsets": true,
    "use_regex": true
  },
  "post_processor": null,
  "decoder": {
    "type": "ByteLevel",
    "add_prefix_space": true,
    "trim_offsets": true,
    "use_regex": true
  },
  "model": {
    "type": "BPE",
    "dropout": null,
    "unk_token": "<UNK>",
    "continuing_subword_prefix": null,
    "end_of_word_suffix": null,
    "fuse_unk": false,
    "byte_fallback": false,
    "ignore_merges": false,
    "vocab": {
      "<PAD>": 0,
      "<UNK>": 1,
      "<BOS>": 2,
      "<EOS>": 3,
      "a": 4,
      "b": 5,
      "c": 6,
      "d": 7,
      "e": 8,
      "f": 9,
      "g": 10,
      "h": 11,
      "i": 12,
      "j": 13,
      "k": 14,
      "l": 15,
      "m": 16,
      "n": 17,
      "o": 18,
      "p": 19,
      "q": 20,
      "r": 21,
      "s": 22,
      "t": 23,
      "u": 24,
      "v": 25,
      "w": 26,
      "x": 27,
      "y": 28,
      "z": 29,
      "Ġ": 30,
      "in": 31,
      "er": 32,
      "Ġs": 33,
      "Ġc": 34,
      "on": 35,
      "re": 36,
      "Ġp": 37,
      "ti": 38,
      "es": 39,
      "en": 40,
      "an": 41,
      "al": 42,
      "ar": 43,
      "or": 44,
      "Ġd": 45,
      "ed": 46,
      "ing": 47,
      "Ġm": 48,
      "Ġb": 49,
      "Ġa": 50,
      "at": 51,
      "Ġf": 52,
      "le": 53,
      "Ġt": 54,
      "ic": 55,
      "tion": 56,
      "it": 57,
      "ro": 58,
      "is": 59,
      "Ġre": 60,
      "Ġl": 61,
      "Ġe": 62,
      "ent": 63,
      "Ġh": 64,
      "as": 65,
      "Ġco": 66,
      "Ġg": 67,
      "el": 68,
      "ac": 69,
      "un": 70,
      "il": 71,
      "Ġw": 72,
      "Ġn": 73,
      "us": 74,
      "ur": 75,
      "Ġin": 76,
      "ec": 77,
      "et": 78,
      "ers": 79,
      "Ġst": 80,
      "ation": 81,
      "ol": 82,
      "am": 83,
      "id": 84,
      "ot": 85,
      "Ġv": 86,
      "Ġpro": 87,
      "ad": 88,
      "Ġo": 89,
      "ig": 90,
      "ce": 91,
      "ch": 92,
      "Ġcon": 93,
      "mp": 94,
      "st": 95,
      "Ġch": 96,
      "ul": 97,
      "ag": 98,
      "ri": 99,
      "ment": 100,
      "ut": 101,
      "ay": 102,
      "ve": 103,
      "ab": 104,
      "pp": 105,
      "ess": 106,
      "Ġr": 107,
      "om": 108,
      "ts": 109,
      "and": 110,
      "lo": 111,
      "Ġj": 112,
      "ter": 113,
      "Ġex": 114,
      "qu": 115,
      "ly": 116,
      "ity": 117,
      "Ġk": 118,
      "os": 119,
      "ir": 120,
      "ate": 121,
      "uc": 122,
      "Ġde": 123,
      "od": 124,
      "ra": 125,
      "ure": 126,
      "op": 127,
      "Ġsh": 128,
      "ort": 129,
      "ff": 130,
      "ion": 131,
      "ist": 132,
      "Ġsp": 133,
      "oc": 134,
      "um": 135,
      "Ġac": 136,
      "Ġse": 137,
      "Ġad": 138,
      "em": 139,
      "Ġle": 140,
      "tic": 141,
      "ss": 142,
      "ap": 143,
      "ies": 144,
      "Ġen": 145,
      "im": 146,
      "ver": 147,
      "art": 148,
      "ub": 149,
      "ie": 150,
      "Ġun": 151,
      "are": 152,
      "ard": 153,
      "ud": 154,
      "Ġnot": 155,
      "ain": 156,
      "Ġti": 157,
      "ine": 158,
      "og": 159,
      "ow": 160,
      "if": 161,
      "est": 162,
      "Ġcomp": 163,
      "th": 164,
      "age": 165,
      "ip": 166,
      "Ġpl": 167,
      "end": 168,
      "Ġcont": 169,
      "Ġcom": 170,
      "Ġtr": 171,
      "iz": 172,
      "Ġan": 173,
      "igh": 174,
      "ice": 175,
      "all": 176,
      "ge": 177,
      "iv": 178,
      "ia": 179,
      "ial": 180,
      "ide": 181,
      "per": 182,
      "ust": 183,
      "Ġpre": 184,
      "ak": 185,
      "ect": 186,
      "Ġhe": 187,
      "ack": 188,
      "Ġro": 189,
      "ok": 190,
      "Ġapp": 191,
      "Ġser": 192,
      "tions": 193,
      "able": 194,
      "me": 195,
      "ance": 196,
      "orm": 197,
      "Ġcl": 198,
      "ant": 199,
      "Ġsu": 200,
      "Ġres": 201,
      "Ġbo": 202,
      "Ġar": 203,
      "ire": 204,
      "ass": 205,
      "ans": 206,
      "ations": 207,
      "ence": 208,
      "ry": 209,
      "our": 210,
      "ail": 211,
      "ct": 212,
      "Ġpr": 213,
      "Ġdis": 214,
      "duc": 215,
      "av": 216,
      "ens": 217,
      "Ġmar": 218,
      "Ġqu": 219,
      "ous": 220,
      "Ġte": 221,
      "tive": 222,
      "ib": 223,
      "Ġsc": 224,
      "und": 225,
      "act": 226,
      "ign": 227,
      "Ġacc": 228,
      "ill": 229,
      "ell": 230,
      "up": 231,
      "ated": 232,
      "Ġfe": 233,
      "ord": 234,
      "Ġcol": 235,
      "anc": 236,
      "ach": 237,
      "ors": 238,
      "vel": 239,
      "Ġal": 240,
      "ight": 241,
      "ish": 242,
      "ary": 243,
      "Ġserv": 244,
      "Ġth": 245,
      "imp": 246,
      "te": 247,
      "Ġcomm": 248,
      "ost": 249,
      "ks": 250,
      "ore": 251,
      "Ġcre": 252,
      "ey": 253,
      "Ġph": 254,
      "ug": 255,
      "Ġper": 256,
      "Ġind": 257,
      "unt": 258,
      "Ġinc": 259,
      "ical": 260,
      "Ġmo": 261,
      "ws": 262,
      "Ġrep": 263,
      "Ġtime": 264,
      "iti": 265,
      "lic": 266,
      "Ġdes": 267,
      "Ġoff": 268,
      "ang": 269,
      "ast": 270,
      "ive": 271,
      "ition": 272,
      "Ġlo": 273,
      "Ġadd": 274,
      "ue": 275,
      "Ġproduc": 276,
      "ments": 277,
      "Ġwe": 278,
      "Ġbr": 279,
      "ren": 280,
      "ress": 281,
      "ep": 282,
      "ual": 283,
      "Ġexp": 284,
      "Ġmon": 285,
      "ace": 286,
      "ath": 287,
      "Ġso": 288,
      "Ġday": 289,
      "Ġor": 290,
      "ber": 291,
      "Ġinter": 292,
      "Ġbe": 293,
      "les": 294,
      "ory": 295,
      "iss": 296,
      "ents": 297,
      "Ġbl": 298,
      "ech": 299,
      "Ġrec": 300,
      "ild": 301,
      "Ġpe": 302,
      "Ġman": 303,
      "Ġne": 304,
      "ram": 305,
      "Ġem": 306,
      "ater": 307,
      "Ġimp": 308,
      "ool": 309,
      "ult": 310,
      "ices": 311,
      "ind": 312,
      "ings": 313,
      "Ġam": 314,
      "Ġpar": 315,
      "ian": 316,
      "Ġdat": 317,
      "ph": 318,
      "Ġreg": 319,
      "enc": 320,
      "ons": 321,
      "ase": 322,
      "Ġy": 323,
      "yp": 324,
      "iew": 325,
      "als": 326,
      "form": 327,
      "ket": 328,
      "old": 329,
      "Ġag": 330,
      "Ġpers": 331,
      "low": 332,
      "ite": 333,
      "Ġdec": 334,
      "Ġsupp": 335,
      "Ġcar": 336,
      "pt": 337,
      "tt": 338,
      "uth": 339,
      "Ġass": 340,
      "ric": 341,
      "Ġcons": 342,
      "Ġev": 343,
      "enti": 344,
      "Ġme": 345,
      "Ġbus": 346,
      "Ġgu": 347,
      "Ġsch": 348,
      "ati": 349,
      "ys": 350,
      "Ġfin": 351,
      "ash": 352,
      "Ġfo": 353,
      "Ġpol": 354,
      "ick": 355,
      "lect": 356,
      "its": 357,
      "cess": 358,
      "Ġed": 359,
      "orn": 360,
      "Ġtra": 361,
      "ating": 362,
      "Ġexper": 363,
      "Ġprov": 364,
      "Ġtrans": 365,
      "Ġpost": 366,
      "sh": 367,
      "ile": 368,
      "aw": 369,
      "ork": 370,
      "Ġmod": 371,
      "ility": 372,
      "Ġsub": 373,
      "line": 374,
      "Ġstr": 375,
      "Ġjo": 376,
      "Ġspec": 377,
      "ft": 378,
      "ities": 379,
      "ature": 380,
      "iness": 381,
      "olog": 382,
      "Ġon": 383,
      "Ġop": 384,
      "Ġperson": 385,
      "arn": 386,
      "Ġmed": 387,
      "Ġgr": 388,
      "ction": 389,
      "one": 390,
      "ann": 391,
      "Ġins": 392,
      "Ġmin": 393,
      "Ġrem": 394,
      "Ġrequ": 395,
      "co": 396,
      "Ġinv": 397,
      "ience": 398,
      "Ġbas": 399,
      "ally": 400,
      "Ġstud": 401,
      "ful": 402,
      "Ġbu": 403,
      "Ġbro": 404,
      "riv": 405,
      "Ġloc": 406,
      "Ġus": 407,
      "bo": 408,
      "ange": 409,
      "alth": 410,
      "Ġdata": 411,
      "Ġtech": 412,
      "arch": 413,
      "ong": 414,
      "Ġbusiness": 415,
      "Ġdi": 416,
      "ax": 417,
      "own": 418,
      "Ġz": 419,
      "ife": 420,
      "Ġset": 421,
      "Ġread": 422,
      "Ġtyp": 423,
      "Ġit": 424,
      "ik": 425,
      "Ġgam": 426,
      "Ġdel": 427,
      "Ġgo": 428,
      "erm": 429,
      "io": 430,
      "ates": 431,
      "Ġmet": 432,
      "orth": 433,
      "Ġchar": 434,
      "Ġplay": 435,
      "land": 436,
      "urn": 437,
      "af": 438,
      "Ġeng": 439,
      "int": 440,
      "Ġhealth": 441,
      "Ġret": 442,
      "Ġinst": 443,
      "Ġno": 444,
      "Ġpeop": 445,
      "ale": 446,
      "Ġdet": 447,
      "Ġprog": 448,
      "tiv": 449,
      "Ġdesign": 450,
      "bs": 451,
      "ational": 452,
      "Ġadv": 453,
      "Ġpeople": 454,
      "ond": 455,
      "Ġfl": 456,
      "Ġsy": 457,
      "air": 458,
      "Ġaccess": 459,
      "Ġcust": 460,
      "ty": 461,
      "amp": 462,
      "Ġvis": 463,
      "Ġsk": 464,
      "Ġtechn": 465,
      "fer": 466,
      "Ġcustom": 467,
      "Ġfr": 468,
      "atch": 469,
      "Ġrev": 470,
      "az": 471,
      "ited": 472,
      "Ġdep": 473,
      "li": 474,
      "ize": 475,
      "ions": 476,
      "Ġservices": 477,
      "Ġsw": 478,
      "velop": 479,
      "Ġonline": 480,
      "Ġcompan": 481,
      "Ġpub": 482,
      "ek": 483,
      "Ġpur": 484,
      "row": 485,
      "ah": 486,
      "Ġsec": 487,
      "Ġprof": 488,
      "Ġlin": 489,
      "ise": 490,
      "Ġservice": 491,
      "Ġdevelop": 492,
      "rib": 493,
      "Ġcare": 494,
      "Ġfun": 495,
      "Ġvide": 496,
      "lish": 497,
      "xx": 498,
      "Ġcent": 499,
      "Ġform": 500,
      "Ġwh": 501,
      "ality": 502,
      "Ġmarket": 503,
      "gan": 504,
      "lud": 505,
      "Ġim": 506,
      "Ġext": 507,
      "Ġint": 508,
      "Ġblo": 509,
      "Ġsearch": 510,
      "Ġeff": 511,
      "ene": 512,
      "ting": 513,
      "Ġatt": 514,
      "se": 515,
      "Ġsol": 516,
      "Ġbre": 517,
      "ely": 518,
      "ular": 519,
      "ose": 520,
      "Ġis": 521,
      "Ġsupport": 522,
      "ank": 523,
      "Ġund": 524,
      "ative": 525,
      "Ġhand": 526,
      "ower": 527,
      "tim": 528,
      "Ġprocess": 529,
      "Ġup": 530,
      "Ġcommun": 531,
      "ern": 532,
      "ich": 533,
      "Ġprogram": 534,
      "ject": 535,
      "Ġtre": 536,
      "Ġlife": 537,
      "Ġcount": 538,
      "eld": 539,
      "Ġdo": 540,
      "ily": 541,
      "Ġsur": 542,
      "eck": 543,
      "Ġrequire": 544,
      "led": 545,
      "ivers": 546,
      "br": 547,
      "Ġresp": 548,
      "Ġpay": 549,
      "app": 550,
      "Ġsoc": 551,
      "Ġemp": 552,
      "ov": 553,
      "ets": 554,
      "Ġcontact": 555,
      "ems": 556,
      "ted": 557,
      "Ġcr": 558,
      "ton": 559,
      "Ġcap": 560,
      "Ġintern": 561,
      "Ġinclud": 562,
      "Ġprice": 563,
      "Ġlist": 564,
      "Ġsm": 565,
      "ology": 566,
      "Ġwr": 567,
      "Ġinf": 568,
      "Ġschool": 569,
      "Ġrel": 570,
      "red": 571,
      "Ġent": 572,
      "Ġpart": 573,
      "Ġfil": 574,
      "oth": 575,
      "Ġab": 576,
      "Ġfam": 577,
      "Ġstart": 578,
      "rol": 579,
      "Ġdays": 580,
      "Ġpass": 581,
      "rip": 582,
      "Ġdef": 583,
      "Ġclass": 584,
      "ues": 585,
      "erg": 586,
      "ection": 587,
      "ages": 588,
      "ures": 589,
      "Ġcolle": 590,
      "orts": 591,
      "arm": 592,
      "Ġview": 593,
      "Ġeas": 594,
      "ugh": 595,
      "ling": 596,
      "raph": 597,
      "Ġbook": 598,
      "sc": 599,
      "ck": 600,
      "ix": 601,
      "hip": 602,
      "eric": 603,
      "Ġteam": 604,
      "ital": 605,
      "ness": 606,
      "Ġcomple": 607,
      "ipp": 608,
      "ution": 609,
      "Ġfor": 610,
      "ood": 611,
      "ator": 612,
      "Ġorgan": 613,
      "pr": 614,
      "ari": 615,
      "Ġwater": 616,
      "Ġdisc": 617,
      "Ġcho": 618,
      "ved": 619,
      "Ġacco": 620,
      "ics": 621,
      "Ġout": 622,
      "man": 623,
      "de": 624,
      "Ġsign": 625,
      "loy": 626,
      "ake": 627,
      "Ġreal": 628,
      "els": 629,
      "Ġcor": 630,
      "Ġmus": 631,
      "ants": 632,
      "ines": 633,
      "ient": 634,
      "ne": 635,
      "Ġcook": 636,
      "Ġanal": 637,
      "Ġlog": 638,
      "Ġprot": 639,
      "Ġtype": 640,
      "ific": 641,
      "ety": 642,
      "ps": 643,
      "Ġcur": 644,
      "ards": 645,
      "Ġste": 646,
      "Ġmain": 647,
      "iver": 648,
      "Ġlearn": 649,
      "Ġto": 650,
      "ade": 651,
      "Ġapplic": 652,
      "Ġstand": 653,
      "tif": 654,
      "ner": 655,
      "Ġcal": 656,
      "Ġoffer": 657,
      "ural": 658,
      "Ġer": 659,
      "tern": 660,
      "pl": 661,
      "Ġdist": 662,
      "Ġemail": 663,
      "Ġproducts": 664,
      "ateg": 665,
      "Ġshare": 666,
      "Ġgen": 667,
      "au": 668,
      "ories": 669,
      "Ġlead": 670,
      "ied": 671,
      "ins": 672,
      "Ġexperience": 673,
      "Ġnews": 674,
      "ars": 675,
      "Ġreturn": 676,
      "ects": 677,
      "Ġgre": 678,
      "ves": 679,
      "Ġconf": 680,
      "uss": 681,
      "Ġcond": 682,
      "Ġfeature": 683,
      "Ġsex": 684,
      "Ġes": 685,
      "ized": 686,
      "king": 687,
      "Ġleg": 688,
      "Ġcompany": 689,
      "ential": 690,
      "Ġpower": 691,
      "Ġchild": 692,
      "ier": 693,
      "day": 694,
      "Ġcred": 695,
      "tle": 696,
      "ible": 697,
      "Ġsaf": 698,
      "Ġpersonal": 699,
      "res": 700,
      "Ġcost": 701,
      "ee": 702,
      "ties": 703,
      "ason": 704,
      "Ġval": 705,
      "Ġequ": 706,
      "Ġperform": 707,
      "Ġel": 708,
      "ights": 709,
      "Ġbuild": 710,
      "ouse": 711,
      "ree": 712,
      "ats": 713,
      "Ġexc": 714,
      "Ġbased": 715,
      "load": 716,
      "Ġref": 717,
      "rop": 718,
      "Ġav": 719,
      "ware": 720,
      "Ġrece": 721,
      "Ġcontent": 722,
      "con": 723,
      "ute": 724,
      "ious": 725,
      "Ġdire": 726,
      "Ġcheck": 727,
      "ield": 728,
      "Ġfri": 729,
      "Ġprovide": 730,
      "ining": 731,
      "Ġtim": 732,
      "Ġiss": 733,
      "Ġproduct": 734,
      "Ġaut": 735,
      "Ġob": 736,
      "ock": 737,
      "Ġx": 738,
      "tit": 739,
      "Ġconn": 740,
      "Ġauth": 741,
      "ability": 742,
      "tics": 743,
      "Ġproper": 744,
      "Ġspecial": 745,
      "iqu": 746,
      "ession": 747,
      "Ġemploy": 748,
      "Ġwom": 749,
      "Ġu": 750,
      "Ġaddition": 751,
      "ruc": 752,
      "ith": 753,
      "acy": 754,
      "Ġpos": 755,
      "ember": 756,
      "Ġphot": 757,
      "Ġdeliver": 758,
      "Ġsl": 759,
      "Ġcle": 760,
      "Ġameric": 761,
      "Ġindust": 762,
      "Ġmanage": 763,
      "tc": 764,
      "Ġpublic": 765,
      "ery": 766,
      "Ġblack": 767,
      "Ġpriv": 768,
      "ark": 769,
      "Ġas": 770,
      "get": 771,
      "Ġge": 772,
      "Ġsal": 773,
      "Ġmul": 774,
      "Ġgl": 775,
      "Ġdr": 776,
      "cc": 777,
      "ina": 778,
      "Ġred": 779,
      "Ġest": 780,
      "Ġpop": 781,
      "Ġcontin": 782,
      "Ġpolic": 783,
      "ex": 784,
      "work": 785,
      "Ġdown": 786,
      "Ġvideo": 787,
      "tical": 788,
      "Ġaccount": 789,
      "Ġquality": 790,
      "erst": 791,
      "Ġlove": 792,
      "Ġlevel": 793,
      "Ġele": 794,
      "ency": 795,
      "ering": 796,
      "Ġkey": 797,
      "ization": 798,
      "Ġlaw": 799,
      "Ġmater": 800,
      "Ġunivers": 801,
      "ron": 802,
      "Ġoper": 803,
      "Ġclo": 804,
      "Ġla": 805,
      "Ġfre": 806,
      "iting": 807,
      "Ġworth": 808,
      "Ġlim": 809,
      "Ġdev": 810,
      "Ġmonth": 811,
      "ites": 812,
      "Ġstore": 813,
      "Ġdig": 814,
      "Ġens": 815,
      "Ġann": 816,
      "itions": 817,
      "ert": 818,
      "Ġrest": 819,
      "erc": 820,
      "Ġmat": 821,
      "min": 822,
      "jo": 823,
      "ump": 824,
      "ails": 825,
      "Ġfriend": 826,
      "Ġpres": 827,
      "Ġmaterial": 828,
      "Ġart": 829,
      "ider": 830,
      "Ġspe": 831,
      "Ġbar": 832,
      "Ġhot": 833,
      "Ġeduc": 834,
      "Ġhead": 835,
      "Ġwin": 836,
      "Ġhist": 837,
      "Ġimpro": 838,
      "Ġconc": 839,
      "omm": 840,
      "ture": 841,
      "ister": 842,
      "ivid": 843,
      "Ġdoc": 844,
      "ces": 845,
      "ger": 846,
      "Ġbtc": 847,
      "Ġair": 848,
      "Ġid": 849,
      "ody": 850,
      "ush": 851,
      "Ġnet": 852,
      "out": 853,
      "Ġlive": 854,
      "Ġgrow": 855,
      "Ġhel": 856,
      "Ġsize": 857,
      "Ġincre": 858,
      "gr": 859,
      "Ġrespons": 860,
      "ai": 861,
      "Ġtool": 862,
      "ome": 863,
      "Ġhum": 864,
      "ather": 865,
      "Ġfamily": 866,
      "Ġsimp": 867,
      "Ġhard": 868,
      "Ġcontrol": 869,
      "ley": 870,
      "Ġques": 871,
      "Ġlab": 872,
      "Ġfood": 873,
      "ences": 874,
      "Ġactiv": 875,
      "Ġmen": 876,
      "Ġprev": 877,
      "iron": 878,
      "Ġsho": 879,
      "ino": 880,
      "Ġkn": 881,
      "ense": 882,
      "aj": 883,
      "Ġsing": 884,
      "Ġdem": 885,
      "we": 886,
      "let": 887,
      "Ġstep": 888,
      "Ġflo": 889,
      "Ġat": 890,
      "Ġglo": 891,
      "Ġshipp": 892,
      "uary": 893,
      "ium": 894,
      "ision": 895,
      "Ġlot": 896,
      "ls": 897,
      "Ġaddress": 898,
      "Ġpri": 899,
      "Ġsoft": 900,
      "Ġstre": 901,
      "Ġcro": 902,
      "Ġpo": 903,
      "aring": 904,
      "ined": 905,
      "Ġwor": 906,
      "urs": 907,
      "uck": 908,
      "ral": 909,
      "vers": 910,
      "Ġgame": 911,
      "Ġunderst": 912,
      "Ġmil": 913,
      "Ġve": 914,
      "Ġmanagement": 915,
      "ges": 916,
      "Ġcity": 917,
      "Ġnat": 918,
      "less": 919,
      "Ġfac": 920,
      "Ġprac": 921,
      "Ġide": 922,
      "Ġpack": 923,
      "Ġdevelopment": 924,
      "Ġelect": 925,
      "Ġhy": 926,
      "vern": 927,
      "hod": 928,
      "Ġvari": 929,
      "Ġdirect": 930,
      "Ġdiff": 931,
      "ms": 932,
      "Ġsecur": 933,
      "Ġlight": 934,
      "Ġcookies": 935,
      "tice": 936,
      "Ġvisit": 937,
      "Ġsty": 938,
      "Ġsocial": 939,
      "Ġmulti": 940,
      "Ġtemp": 941,
      "Ġbel": 942,
      "Ġlocal": 943,
      "yn": 944,
      "Ġdownload": 945,
      "Ġhol": 946,
      "Ġinvest": 947,
      "Ġpurch": 948,
      "Ġliv": 949,
      "Ġdom": 950,
      "Ġpolicy": 951,
      "Ġwal": 952,
      "Ġselect": 953,
      "Ġweek": 954,
      "Ġprofession": 955,
      "Ġpress": 956,
      "Ġfeel": 957,
      "Ġcan": 958,
      "Ġwomen": 959,
      "Ġchange": 960,
      "ication": 961,
      "ividual": 962,
      "Ġtal": 963,
      "nt": 964,
      "Ġunderstand": 965,
      "Ġpain": 966,
      "itch": 967,
      "Ġindividual": 968,
      "aster": 969,
      "Ġpap": 970,
      "Ġreport": 971,
      "Ġrele": 972,
      "Ġrecord": 973,
      "ids": 974,
      "ograph": 975,
      "Ġupd": 976,
      "ists": 977,
      "ior": 978,
      "yc": 979,
      "pos": 980,
      "Ġport": 981,
      "book": 982,
      "Ġchr": 983,
      "Ġcommunity": 984,
      "Ġcreate": 985,
      "Ġtrad": 986,
      "Ġuniversity": 987,
      "ected": 988,
      "ourn": 989,
      "ten": 990,
      "Ġmag": 991,
      "Ġcode": 992,
      "Ġwar": 993,
      "he": 994,
      "Ġgir": 995,
      "Ġhouse": 996,
      "wn": 997,
      "Ġappro": 998,
      "ven": 999,
      "Ġengine": 1000,
      "ote": 1001,
      "Ġauthor": 1002,
      "Ġclean": 1003,
      "ving": 1004,
      "ills": 1005,
      "Ġmem": 1006,
      "Ġenv": 1007,
      "Ġvac": 1008,
      "Ġbrand": 1009,
      "ane": 1010,
      "Ġfinanc": 1011,
      "ries": 1012,
      "Ġfeatures": 1013,
      "round": 1014,
      "Ġtechnology": 1015,
      "Ġdetails": 1016,
      "Ġcard": 1017,
      "Ġsuc": 1018,
      "Ġsouth": 1019,
      "ration": 1020,
      "Ġaf": 1021,
      "umm": 1022,
      "til": 1023,
      "Ġopp": 1024,
      "Ġover": 1025,
      "Ġshipping": 1026,
      "Ġwhite": 1027,
      "Ġfund": 1028,
      "Ġaw": 1029,
      "iews": 1030,
      "Ġaff": 1031,
      "Ġwork": 1032,
      "Ġbody": 1033,
      "ke": 1034,
      "Ġcall": 1035,
      "Ġplat": 1036,
      "Ġoptions": 1037,
      "Ġgovern": 1038,
      "Ġresour": 1039,
      "atic": 1040,
      "Ġcas": 1041,
      "Ġhapp": 1042,
      "Ġprom": 1043,
      "ission": 1044,
      "Ġmeet": 1045,
      "word": 1046,
      "Ġhour": 1047,
      "Ġeasy": 1048,
      "Ġjun": 1049,
      "be": 1050,
      "ract": 1051,
      "Ġho": 1052,
      "Ġinclude": 1053,
      "Ġnorth": 1054,
      "ift": 1055,
      "ave": 1056,
      "Ġbene": 1057,
      "ism": 1058,
      "Ġmethod": 1059,
      "Ġsecurity": 1060,
      "Ġocc": 1061,
      "enn": 1062,
      "Ġsuper": 1063,
      "ror": 1064,
      "ury": 1065,
      "ective": 1066,
      "Ġfore": 1067,
      "Ġcurren": 1068,
      "Ġbenef": 1069,
      "Ġess": 1070,
      "cept": 1071,
      "Ġperf": 1072,
      "Ġreview": 1073,
      "ler": 1074,
      "ident": 1075,
      "Ġfol": 1076,
      "Ġgener": 1077,
      "Ġcover": 1078,
      "Ġenviron": 1079,
      "tis": 1080,
      "Ġlink": 1081,
      "Ġbra": 1082,
      "Ġanim": 1083,
      "ones": 1084,
      "Ġaud": 1085,
      "angu": 1086,
      "Ġris": 1087,
      "Ġland": 1088,
      "Ġwind": 1089,
      "Ġproject": 1090,
      "Ġplan": 1091,
      "Ġsyst": 1092,
      "Ġorig": 1093,
      "Ġartic": 1094,
      "ille": 1095,
      "der": 1096,
      "Ġap": 1097,
      "Ġmob": 1098,
      "Ġcer": 1099,
      "ique": 1100,
      "ays": 1101,
      "Ġboard": 1102,
      "Ġtop": 1103,
      "Ġconst": 1104,
      "Ġparty": 1105,
      "Ġfunction": 1106,
      "inal": 1107,
      "Ġfit": 1108,
      "Ġjourn": 1109,
      "ortun": 1110,
      "Ġchildren": 1111,
      "mit": 1112,
      "Ġinstall": 1113,
      "Ġitem": 1114,
      "Ġvers": 1115,
      "oss": 1116,
      "ots": 1117,
      "Ġdigital": 1118,
      "Ġtax": 1119,
      "Ġblog": 1120,
      "ana": 1121,
      "Ġmach": 1122,
      "Ġshop": 1123,
      "Ġinternational": 1124,
      "bal": 1125,
      "Ġfut": 1126,
      "Ġarch": 1127,
      "Ġcommon": 1128,
      "Ġspecific": 1129,
      "ink": 1130,
      "ung": 1131,
      "Ġsour": 1132,
      "Ġecon": 1133,
      "Ġsale": 1134,
      "Ġitems": 1135,
      "ased": 1136,
      "ams": 1137,
      "ances": 1138,
      "ending": 1139,
      "hn": 1140,
      "Ġpa": 1141,
      "Ġevent": 1142,
      "Ġtot": 1143,
      "ning": 1144,
      "Ġcenter": 1145,
      "her": 1146,
      "ule": 1147,
      "Ġterm": 1148,
      "Ġver": 1149,
      "Ġperformance": 1150,
      "ape": 1151,
      "Ġdesc": 1152,
      "Ġsn": 1153,
      "Ġje": 1154,
      "Ġunited": 1155,
      "ership": 1156,
      "inc": 1157,
      "Ġeducation": 1158,
      "utions": 1159,
      "ying": 1160,
      "Ġhuman": 1161,
      "Ġang": 1162,
      "Ġoffers": 1163,
      "Ġeconom": 1164,
      "port": 1165,
      "Ġdelivery": 1166,
      "ames": 1167,
      "Ġmoney": 1168,
      "son": 1169,
      "Ġbut": 1170,
      "ription": 1171,
      "Ġtraining": 1172,
      "Ġmodel": 1173,
      "Ġstar": 1174,
      "go": 1175,
      "room": 1176,
      "Ġand": 1177,
      "Ġri": 1178,
      "Ġpot": 1179,
      "Ġtreat": 1180,
      "yl": 1181,
      "Ġdisco": 1182,
      "Ġmusic": 1183,
      "of": 1184,
      "Ġvir": 1185,
      "uce": 1186,
      "Ġbox": 1187,
      "allen": 1188,
      "Ġce": 1189,
      "Ġhar": 1190,
      "Ġcart": 1191,
      "Ġlangu": 1192,
      "Ġpet": 1193,
      "Ġvi": 1194,
      "Ġperfect": 1195,
      "Ġpat": 1196,
      "Ġjul": 1197,
      "uring": 1198,
      "Ġflow": 1199,
      "Ġhigh": 1200,
      "lus": 1201,
      "Ġfoc": 1202,
      "Ġenvironment": 1203,
      "utes": 1204,
      "Ġenjo": 1205,
      "ds": 1206,
      "Ġq": 1207,
      "Ġmedia": 1208,
      "Ġfinancial": 1209,
      "Ġgames": 1210,
      "Ġspace": 1211,
      "Ġplatform": 1212,
      "Ġcolor": 1213,
      "Ġcredit": 1214,
      "Ġtrack": 1215,
      "Ġhistory": 1216,
      "ux": 1217,
      "ised": 1218,
      "Ġindustry": 1219,
      "ony": 1220,
      "Ġseries": 1221,
      "Ġtimes": 1222,
      "Ġsystems": 1223,
      "Ġwatch": 1224,
      "Ġautom": 1225,
      "Ġmess": 1226,
      "Ġusers": 1227,
      "Ġamerican": 1228,
      "uf": 1229,
      "Ġher": 1230,
      "Ġfuture": 1231,
      "Ġsun": 1232,
      "Ġsumm": 1233,
      "Ġtw": 1234,
      "Ġstock": 1235,
      "Ġjan": 1236,
      "Ġregular": 1237,
      "Ġidenti": 1238,
      "ball": 1239,
      "Ġexperi": 1240,
      "Ġcross": 1241,
      "uch": 1242,
      "Ġvideos": 1243,
      "Ġconditions": 1244,
      "ont": 1245,
      "ument": 1246,
      "ination": 1247,
      "Ġlib": 1248,
      "Ġoffice": 1249,
      "itor": 1250,
      "Ġpublish": 1251,
      "ada": 1252,
      "Ġbrows": 1253,
      "Ġcri": 1254,
      "Ġey": 1255,
      "irm": 1256,
      "Ġevents": 1257,
      "ancy": 1258,
      "aim": 1259,
      "ees": 1260,
      "Ġdri": 1261,
      "Ġvol": 1262,
      "Ġcollection": 1263,
      "Ġfield": 1264,
      "ared": 1265,
      "Ġstrateg": 1266,
      "Ġisland": 1267,
      "Ġrange": 1268,
      "Ġcountry": 1269,
      "ced": 1270,
      "Ġi": 1271,
      "Ġbal": 1272,
      "Ġcustomer": 1273,
      "Ġregister": 1274,
      "Ġbi": 1275,
      "iding": 1276,
      "Ġimprove": 1277,
      "Ġfoot": 1278,
      "ibility": 1279,
      "Ġensure": 1280,
      "Ġfocus": 1281,
      "ases": 1282,
      "Ġnetwork": 1283,
      "tor": 1284,
      "Ġphys": 1285,
      "Ġanalys": 1286,
      "ended": 1287,
      "Ġcommit": 1288,
      "ters": 1289,
      "Ġstudents": 1290,
      "iter": 1291,
      "Ġnational": 1292,
      "aff": 1293,
      "Ġdam": 1294,
      "Ġnatural": 1295,
      "Ġbat": 1296,
      "Ġsil": 1297,
      "Ġmal": 1298,
      "Ġbank": 1299,
      "Ġopportun": 1300,
      "roduc": 1301,
      "Ġsuccess": 1302,
      "Ġdra": 1303,
      "Ġgold": 1304,
      "Ġmax": 1305,
      "Ġagree": 1306,
      "Ġprint": 1307,
      "eds": 1308,
      "Ġcamp": 1309,
      "Ġnote": 1310,
      "Ġir": 1311,
      "ring": 1312,
      "Ġmeas": 1313,
      "iation": 1314,
      "Ġpic": 1315,
      "Ġsell": 1316,
      "Ġcry": 1317,
      "Ġadmin": 1318,
      "Ġcoun": 1319,
      "Ġoct": 1320,
      "icial": 1321,
      "Ġoil": 1322,
      "por": 1323,
      "Ġstruc": 1324,
      "Ġstandard": 1325,
      "ging": 1326,
      "aging": 1327,
      "Ġdeal": 1328,
      "by": 1329,
      "Ġprofessional": 1330,
      "ening": 1331,
      "Ġdriv": 1332,
      "Ġstudy": 1333,
      "ble": 1334,
      "Ġpati": 1335,
      "Ġmind": 1336,
      "Ġbit": 1337,
      "Ġfound": 1338,
      "Ġfile": 1339,
      "Ġrecomm": 1340,
      "Ġter": 1341,
      "Ġjohn": 1342,
      "Ġcurrent": 1343,
      "Ġbet": 1344,
      "atis": 1345,
      "jects": 1346,
      "idd": 1347,
      "Ġsit": 1348,
      "Ġcam": 1349,
      "ients": 1350,
      "Ġshort": 1351,
      "Ġappe": 1352,
      "ze": 1353,
      "Ġmatch": 1354,
      "Ġscre": 1355,
      "view": 1356,
      "Ġglobal": 1357,
      "Ġcoll": 1358,
      "Ġhold": 1359,
      "Ġgreen": 1360,
      "Ġfram": 1361,
      "erv": 1362,
      "Ġcomb": 1363,
      "Ġage": 1364,
      "Ġtar": 1365,
      "eral": 1366,
      "Ġcateg": 1367,
      "Ġenjoy": 1368,
      "na": 1369,
      "oid": 1370,
      "Ġsoftware": 1371,
      "acter": 1372,
      "ergy": 1373,
      "Ġchoose": 1374,
      "ental": 1375,
      "Ġfa": 1376,
      "Ġps": 1377,
      "ference": 1378,
      "ads": 1379,
      "akes": 1380,
      "ically": 1381,
      "lement": 1382,
      "ables": 1383,
      "Ġstyle": 1384,
      "Ġwall": 1385,
      "Ġthe": 1386,
      "Ġtitle": 1387,
      "ame": 1388,
      "ensive": 1389,
      "fort": 1390,
      "iod": 1391,
      "sw": 1392,
      "tain": 1393,
      "Ġpan": 1394,
      "Ġpaper": 1395,
      "Ġapplication": 1396,
      "Ġquestions": 1397,
      "ured": 1398,
      "Ġtri": 1399,
      "Ġproperty": 1400,
      "Ġsle": 1401,
      "Ġrun": 1402,
      "Ġmedical": 1403,
      "Ġcat": 1404,
      "anced": 1405,
      "Ġresources": 1406,
      "Ġanalysis": 1407,
      "Ġur": 1408,
      "Ġpare": 1409,
      "Ġscience": 1410,
      "Ġbir": 1411,
      "Ġblue": 1412,
      "Ġseason": 1413,
      "Ġsteel": 1414,
      "Ġnav": 1415,
      "ators": 1416,
      "ctions": 1417,
      "play": 1418,
      "pping": 1419,
      "Ġdiscuss": 1420,
      "cep": 1421,
      "Ġjob": 1422,
      "ests": 1423,
      "Ġeu": 1424,
      "ript": 1425,
      "Ġprivacy": 1426,
      "Ġtools": 1427,
      "Ġcustomers": 1428,
      "Ġtotal": 1429,
      "Ġenter": 1430,
      "Ġpark": 1431,
      "Ġsafety": 1432,
      "tional": 1433,
      "uff": 1434,
      "ilities": 1435,
      "Ġmobile": 1436,
      "Ġmark": 1437,
      "Ġadditional": 1438,
      "Ġrequired": 1439,
      "Ġcir": 1440,
      "iec": 1441,
      "Ġinte": 1442,
      "Ġcra": 1443,
      "ged": 1444,
      "Ġaug": 1445,
      "Ġperiod": 1446,
      "Ġwindow": 1447,
      "Ġinsp": 1448,
      "unch": 1449,
      "Ġapply": 1450,
      "par": 1451,
      "ope": 1452,
      "Ġrepres": 1453,
      "Ġinn": 1454,
      "Ġhours": 1455,
      "Ġmaj": 1456,
      "Ġfollow": 1457,
      "Ġexpl": 1458,
      "Ġic": 1459,
      "Ġxx": 1460,
      "ticip": 1461,
      "Ġcut": 1462,
      "Ġbab": 1463,
      "ags": 1464,
      "Ġback": 1465,
      "Ġpopular": 1466,
      "Ġsingle": 1467,
      "Ġimage": 1468,
      "Ġshe": 1469,
      "ulation": 1470,
      "Ġcell": 1471,
      "Ġheart": 1472,
      "ma": 1473,
      "Ġassist": 1474,
      "Ġcann": 1475,
      "tual": 1476,
      "Ġcult": 1477,
      "rac": 1478,
      "Ġenergy": 1479,
      "ified": 1480,
      "Ġtravel": 1481,
      "ips": 1482,
      "ple": 1483,
      "Ġchallen": 1484,
      "Ġke": 1485,
      "Ġforum": 1486,
      "Ġtest": 1487,
      "Ġtable": 1488,
      "Ġlic": 1489,
      "Ġtex": 1490,
      "Ġdog": 1491,
      "Ġrad": 1492,
      "Ġissues": 1493,
      "Ġphone": 1494,
      "Ġsubject": 1495,
      "rom": 1496,
      "Ġteach": 1497,
      "Ġporn": 1498,
      "owled": 1499,
      "Ġnight": 1500,
      "ainst": 1501,
      "Ġlearning": 1502,
      "ived": 1503,
      "uit": 1504,
      "Ġca": 1505,
      "Ġagainst": 1506,
      "Ġcirc": 1507,
      "ught": 1508,
      "Ġsav": 1509,
      "Ġbul": 1510,
      "Ġenglish": 1511,
      "Ġfloor": 1512,
      "Ġrequest": 1513,
      "Ġcertif": 1514,
      "Ġanaly": 1515,
      "umb": 1516,
      "Ġgra": 1517,
      "Ġcour": 1518,
      "Ġfall": 1519,
      "Ġclos": 1520,
      "Ġmenu": 1521,
      "aces": 1522,
      "Ġgovernment": 1523,
      "Ġach": 1524,
      "Ġrepl": 1525,
      "ains": 1526,
      "Ġwash": 1527,
      "Ġrich": 1528,
      "ike": 1529,
      "ville": 1530,
      "Ġfav": 1531,
      "Ġjap": 1532,
      "Ġapr": 1533,
      "Ġaccessories": 1534,
      "Ġbreak": 1535,
      "Ġrelations": 1536,
      "Ġchrist": 1537,
      "Ġinvol": 1538,
      "Ġidentif": 1539,
      "Ġmaterials": 1540,
      "Ġintegr": 1541,
      "Ġrights": 1542,
      "Ġcomplete": 1543,
      "Ġsafe": 1544,
      "Ġcanc": 1545,
      "Ġamaz": 1546,
      "Ġaction": 1547,
      "Ġlanguage": 1548,
      "Ġunique": 1549,
      "ired": 1550,
      "Ġstory": 1551,
      "Ġjack": 1552,
      "Ġquick": 1553,
      "Ġbuilding": 1554,
      "Ġfle": 1555,
      "ham": 1556,
      "idence": 1557,
      "Ġsound": 1558,
      "Ġpayment": 1559,
      "Ġexplo": 1560,
      "Ġaccept": 1561,
      "Ġmarketing": 1562,
      "Ġaust": 1563,
      "ently": 1564,
      "Ġexpress": 1565,
      "Ġcompanies": 1566,
      "Ġresult": 1567,
      "Ġorganization": 1568,
      "com": 1569,
      "Ġvo": 1570,
      "Ġinternet": 1571,
      "ding": 1572,
      "ipment": 1573,
      "Ġsens": 1574,
      "Ġswe": 1575,
      "Ġsend": 1576,
      "ides": 1577,
      "Ġche": 1578,
      "Ġfact": 1579,
      "Ġgod": 1580,
      "Ġep": 1581,
      "Ġenti": 1582,
      "urance": 1583,
      "Ġclub": 1584,
      "ufact": 1585,
      "Ġmass": 1586,
      "Ġleft": 1587,
      "Ġusd": 1588,
      "Ġhom": 1589,
      "artment": 1590,
      "ention": 1591,
      "Ġcollect": 1592,
      "Ġprivate": 1593,
      "Ġpurchase": 1594,
      "Ġarticle": 1595,
      "ume": 1596,
      "Ġmic": 1597,
      "Ġlocation": 1598,
      "Ġdesigned": 1599,
      "Ġmanufact": 1600,
      "Ġtrue": 1601,
      "Ġlegal": 1602,
      "ere": 1603,
      "Ġfast": 1604,
      "Ġcomfort": 1605,
      "Ġcondition": 1606,
      "ha": 1607,
      "Ġimpact": 1608,
      "itive": 1609,
      "Ġall": 1610,
      "Ġtour": 1611,
      "Ġprices": 1612,
      "Ġeffic": 1613,
      "Ġreceive": 1614,
      "Ġenc": 1615,
      "uk": 1616,
      "Ġsports": 1617,
      "hi": 1618,
      "Ġmail": 1619,
      "Ġmich": 1620,
      "ott": 1621,
      "way": 1622,
      "Ġcoup": 1623,
      "Ġjapan": 1624,
      "Ġmajor": 1625,
      "Ġdeep": 1626,
      "read": 1627,
      "for": 1628,
      "back": 1629,
      "ob": 1630,
      "Ġwest": 1631,
      "Ġcop": 1632,
      "vely": 1633,
      "sp": 1634,
      "Ġwa": 1635,
      "Ġinstit": 1636,
      "ued": 1637,
      "Ġbed": 1638,
      "Ġreach": 1639,
      "Ġcorre": 1640,
      "ison": 1641,
      "Ġmarch": 1642,
      "Ġenh": 1643,
      "eter": 1644,
      "asing": 1645,
      "Ġapproach": 1646,
      "Ġrisk": 1647,
      "Ġadminist": 1648,
      "ruction": 1649,
      "Ġspeak": 1650,
      "zz": 1651,
      "Ġlar": 1652,
      "aur": 1653,
      "atory": 1654,
      "Ġdeb": 1655,
      "ogle": 1656,
      "Ġdoub": 1657,
      "Ġsan": 1658,
      "Ġhelp": 1659,
      "Ġchang": 1660,
      "Ġcharacter": 1661,
      "Ġrepresent": 1662,
      "Ġcontinue": 1663,
      "Ġbur": 1664,
      "Ġcolo": 1665,
      "Ġincludes": 1666,
      "ask": 1667,
      "Ġsimple": 1668,
      "Ġmachine": 1669,
      "Ġstor": 1670,
      "Ġinfl": 1671,
      "auti": 1672,
      "yr": 1673,
      "Ġguide": 1674,
      "aged": 1675,
      "lection": 1676,
      "Ġoptim": 1677,
      "oo": 1678,
      "aste": 1679,
      "rope": 1680,
      "tist": 1681,
      "astic": 1682,
      "Ġprotection": 1683,
      "Ġlimited": 1684,
      "Ġstay": 1685,
      "verage": 1686,
      "Ġassoc": 1687,
      "Ġsubsc": 1688,
      "umer": 1689,
      "ode": 1690,
      "do": 1691,
      "Ġdav": 1692,
      "Ġcredits": 1693,
      "Ġessential": 1694,
      "Ġversion": 1695,
      "Ġsolutions": 1696,
      "Ġregion": 1697,
      "Ġexch": 1698,
      "Ġtreatment": 1699,
      "gg": 1700,
      "owledge": 1701,
      "Ġking": 1702,
      "Ġpiec": 1703,
      "use": 1704,
      "oll": 1705,
      "Ġrate": 1706,
      "Ġgoogle": 1707,
      "bruary": 1708,
      "Ġsat": 1709,
      "Ġiniti": 1710,
      "Ġskin": 1711,
      "Ġcalled": 1712,
      "Ġoriginal": 1713,
      "Ġconsider": 1714,
      "Ġstra": 1715,
      "Ġra": 1716,
      "Ġfu": 1717,
      "Ġwood": 1718,
      "Ġbeh": 1719,
      "Ġpassword": 1720,
      "Ġbenefits": 1721,
      "ube": 1722,
      "Ġreason": 1723,
      "Ġhost": 1724,
      "Ġsales": 1725,
      "uty": 1726,
      "Ġdiscover": 1727,
      "Ġesc": 1728,
      "Ġparticip": 1729,
      "Ġadver": 1730,
      "Ġmap": 1731,
      "izing": 1732,
      "Ġimplement": 1733,
      "Ġoption": 1734,
      "Ġdiffer": 1735,
      "Ġtypes": 1736,
      "Ġdon": 1737,
      "Ġmount": 1738,
      "Ġabs": 1739,
      "Ġfebruary": 1740,
      "Ġplann": 1741,
      "eth": 1742,
      "uation": 1743,
      "ilt": 1744,
      "Ġstrong": 1745,
      "Ġsyn": 1746,
      "hop": 1747,
      "ager": 1748,
      "Ġhair": 1749,
      "Ġsource": 1750,
      "over": 1751,
      "itter": 1752,
      "ster": 1753,
      "Ġachie": 1754,
      "Ġmor": 1755,
      "Ġgard": 1756,
      "Ġdeterm": 1757,
      "Ġmaster": 1758,
      "Ġclaim": 1759,
      "Ġmedic": 1760,
      "Ġequipment": 1761,
      "Ġsept": 1762,
      "pper": 1763,
      "eng": 1764,
      "Ġlay": 1765,
      "Ġmonths": 1766,
      "Ġposts": 1767,
      "Ġplants": 1768,
      "Ġpotential": 1769,
      "Ġansw": 1770,
      "Ġeurope": 1771,
      "autiful": 1772,
      "Ġroad": 1773,
      "Ġinj": 1774,
      "iday": 1775,
      "Ġexist": 1776,
      "ming": 1777,
      "Ġsand": 1778,
      "action": 1779,
      "Ġstaff": 1780,
      "Ġgirl": 1781,
      "Ġgift": 1782,
      "Ġweight": 1783,
      "Ġbeautiful": 1784,
      "Ġbring": 1785,
      "Ġjune": 1786,
      "ho": 1787,
      "hib": 1788,
      "Ġdisplay": 1789,
      "face": 1790,
      "Ġsqu": 1791,
      "sk": 1792,
      "Ġprem": 1793,
      "Ġmultiple": 1794,
      "erap": 1795,
      "ercial": 1796,
      "Ġhon": 1797,
      "Ġanti": 1798,
      "Ġgrowth": 1799,
      "ules": 1800,
      "Ġdeg": 1801,
      "Ġdocument": 1802,
      "Ġmac": 1803,
      "Ġworks": 1804,
      "oph": 1805,
      "Ġjuly": 1806,
      "Ġincrease": 1807,
      "Ġrelationship": 1808,
      "Ġpick": 1809,
      "Ġfinish": 1810,
      "Ġframe": 1811,
      "hic": 1812,
      "Ġdre": 1813,
      "Ġsched": 1814,
      "bb": 1815,
      "Ġbase": 1816,
      "Ġvar": 1817,
      "Ġpropos": 1818,
      "Ġprep": 1819,
      "Ġestate": 1820,
      "ester": 1821,
      "ades": 1822,
      "Ġfeed": 1823,
      "Ġtransl": 1824,
      "Ġcommercial": 1825,
      "oint": 1826,
      "Ġpal": 1827,
      "Ġspecies": 1828,
      "illi": 1829,
      "Ġsites": 1830,
      "Ġnavig": 1831,
      "Ġcomment": 1832,
      "erman": 1833,
      "Ġproduction": 1834,
      "Ġbath": 1835,
      "Ġexec": 1836,
      "ove": 1837,
      "Ġtrust": 1838,
      "Ġwild": 1839,
      "Ġobs": 1840,
      "ablish": 1841,
      "Ġplant": 1842,
      "top": 1843,
      "Ġclim": 1844,
      "Ġinsurance": 1845,
      "Ġliving": 1846,
      "Ġcannot": 1847,
      "Ġsort": 1848,
      "Ġemb": 1849,
      "Ġdevice": 1850,
      "ca": 1851,
      "Ġfinal": 1852,
      "Ġestablish": 1853,
      "rant": 1854,
      "ani": 1855,
      "Ġface": 1856,
      "Ġmaintain": 1857,
      "Ġmix": 1858,
      "oun": 1859,
      "Ġengineering": 1860,
      "Ġown": 1861,
      "Ġactivities": 1862,
      "eti": 1863,
      "ta": 1864,
      "Ġvariety": 1865,
      "Ġdescription": 1866,
      "Ġsim": 1867,
      "ude": 1868,
      "cast": 1869,
      "la": 1870,
      "Ġvehic": 1871,
      "Ġcrypt": 1872,
      "Ġdiv": 1873,
      "Ġload": 1874,
      "ili": 1875,
      "Ġissue": 1876,
      "cent": 1877,
      "Ġtur": 1878,
      "Ġmer": 1879,
      "Ġrequirements": 1880,
      "ief": 1881,
      "Ġtom": 1882,
      "Ġloss": 1883,
      "Ġpartn": 1884,
      "illed": 1885,
      "Ġmov": 1886,
      "Ġcand": 1887,
      "Ġpressure": 1888,
      "dn": 1889,
      "Ġbad": 1890,
      "Ġarr": 1891,
      "Ġlogin": 1892,
      "Ġpractice": 1893,
      "pe": 1894,
      "Ġcounty": 1895,
      "Ġfacebook": 1896,
      "pose": 1897,
      "Ġbud": 1898,
      "Ġnut": 1899,
      "Ġchap": 1900,
      "ox": 1901,
      "ober": 1902,
      "Ġren": 1903,
      "Ġindian": 1904,
      "Ġdry": 1905,
      "Ġready": 1906,
      "Ġcasino": 1907,
      "Ġconnect": 1908,
      "Ġfed": 1909,
      "Ġstorage": 1910,
      "tures": 1911,
      "Ġcash": 1912,
      "ica": 1913,
      "Ġinnov": 1914,
      "Ġsen": 1915,
      "mb": 1916,
      "Ġknowledge": 1917,
      "Ġsam": 1918,
      "Ġchoice": 1919,
      "urg": 1920,
      "Ġdise": 1921,
      "Ġminutes": 1922,
      "Ġestim": 1923,
      "ising": 1924,
      "Ġreduc": 1925,
      "Ġcollege": 1926,
      "Ġlinks": 1927,
      "Ġposition": 1928,
      "idn": 1929,
      "Ġartist": 1930,
      "Ġextra": 1931,
      "Ġclients": 1932,
      "Ġband": 1933,
      "Ġexam": 1934,
      "Ġdecember": 1935,
      "Ġjournal": 1936,
      "Ġallow": 1937,
      "Ġstat": 1938,
      "Ġcontrib": 1939,
      "ained": 1940,
      "ji": 1941,
      "Ġled": 1942,
      "Ġcomments": 1943,
      "Ġblood": 1944,
      "time": 1945,
      "Ġgall": 1946,
      "ender": 1947,
      "Ġapplications": 1948,
      "Ġoctober": 1949,
      "Ġwed": 1950,
      "Ġangel": 1951,
      "Ġdistrib": 1952,
      "Ġrecommend": 1953,
      "Ġnotif": 1954,
      "ara": 1955,
      "Ġposted": 1956,
      "Ġexcell": 1957,
      "asc": 1958,
      "Ġbon": 1959,
      "olution": 1960,
      "Ġindia": 1961,
      "Ġword": 1962,
      "Ġamerica": 1963,
      "tings": 1964,
      "ya": 1965,
      "Ġselection": 1966,
      "Ġadvanced": 1967,
      "Ġbri": 1968,
      "itation": 1969,
      "Ġmodern": 1970,
      "Ġindividuals": 1971,
      "rict": 1972,
      "adem": 1973,
      "Ġinfo": 1974,
      "gin": 1975,
      "Ġimages": 1976,
      "Ġseptember": 1977,
      "Ġol": 1978,
      "Ġstreet": 1979,
      "Ġafric": 1980,
      "Ġprograms": 1981,
      "Ġofficial": 1982,
      "za": 1983,
      "Ġinform": 1984,
      "ogn": 1985,
      "ny": 1986,
      "Ġear": 1987,
      "Ġfab": 1988,
      "Ġimm": 1989,
      "Ġsmart": 1990,
      "Ġphoto": 1991,
      "yal": 1992,
      "Ġcontract": 1993,
      "ored": 1994,
      "Ġquestion": 1995,
      "Ġlibr": 1996,
      "Ġbb": 1997,
      "Ġfarm": 1998,
      "Ġfilm": 1999,
      "Ġwrit": 2000,
      "Ġglass": 2001,
      "Ġapril": 2002,
      "Ġtele": 2003,
      "Ġbooks": 2004,
      "Ġregul": 2005,
      "Ġden": 2006,
      "Ġprim": 2007,
      "Ġutil": 2008,
      "Ġasp": 2009,
      "iety": 2010,
      "ret": 2011,
      "Ġec": 2012,
      "Ġprojects": 2013,
      "Ġsci": 2014,
      "tig": 2015,
      "Ġhappy": 2016,
      "val": 2017,
      "Ġmy": 2018,
      "Ġunit": 2019,
      "lin": 2020,
      "idge": 2021,
      "Ġintroduc": 2022,
      "Ġfriends": 2023,
      "board": 2024,
      "Ġtren": 2025,
      "Ġrob": 2026,
      "Ġrecogn": 2027,
      "ises": 2028,
      "Ġstarted": 2029,
      "Ġkids": 2030,
      "Ġprefer": 2031,
      "ault": 2032,
      "ify": 2033,
      "Ġcosts": 2034,
      "ico": 2035,
      "mission": 2036,
      "Ġjanuary": 2037,
      "ford": 2038,
      "ians": 2039,
      "Ġaugust": 2040,
      "Ġfavor": 2041,
      "ually": 2042,
      "Ġtro": 2043,
      "Ġwriting": 2044,
      "uments": 2045,
      "Ġnature": 2046,
      "Ġspeed": 2047,
      "Ġdepartment": 2048,
      "Ġtradition": 2049,
      "ension": 2050,
      "ych": 2051,
      "Ġli": 2052,
      "Ġprevent": 2053,
      "dic": 2054,
      "Ġactive": 2055,
      "Ġyork": 2056,
      "Ġacadem": 2057,
      "Ġpublished": 2058,
      "Ġson": 2059,
      "Ġstate": 2060,
      "Ġadj": 2061,
      "Ġproviding": 2062,
      "Ġconven": 2063,
      "Ġrole": 2064,
      "Ġearn": 2065,
      "Ġruss": 2066,
      "Ġheav": 2067,
      "Ġeffective": 2068,
      "Ġphotograph": 2069,
      "ered": 2070,
      "anch": 2071,
      "Ġworkshop": 2072,
      "Ġpac": 2073,
      "Ġreturns": 2074,
      "ward": 2075,
      "Ġill": 2076,
      "lies": 2077,
      "ama": 2078,
      "imum": 2079,
      "ector": 2080,
      "Ġfem": 2081,
      "Ġwide": 2082,
      "Ġreading": 2083,
      "kn": 2084,
      "att": 2085,
      "Ġtor": 2086,
      "Ġphil": 2087,
      "used": 2088,
      "Ġsecure": 2089,
      "Ġpath": 2090,
      "Ġsuff": 2091,
      "Ġsimply": 2092,
      "Ġsust": 2093,
      "arant": 2094,
      "Ġchem": 2095,
      "Ġbrowser": 2096,
      "Ġtalk": 2097,
      "Ġpen": 2098,
      "Ġextre": 2099,
      "Ġmot": 2100,
      "Ġfer": 2101,
      "rial": 2102,
      "umn": 2103,
      "Ġskills": 2104,
      "Ġphotos": 2105,
      "Ġrent": 2106,
      "Ġtarget": 2107,
      "Ġben": 2108,
      "Ġgar": 2109,
      "Ġcorpor": 2110,
      "Ġanimals": 2111,
      "gest": 2112,
      "aries": 2113,
      "Ġvic": 2114,
      "Ġerror": 2115,
      "Ġgro": 2116,
      "anti": 2117,
      "Ġrefer": 2118,
      "Ġremov": 2119,
      "Ġsummer": 2120,
      "Ġdest": 2121,
      "Ġfish": 2122,
      "Ġcool": 2123,
      "Ġdeath": 2124,
      "Ġtherap": 2125,
      "Ġgrand": 2126,
      "Ġsleep": 2127,
      "hold": 2128,
      "ym": 2129,
      "Ġaverage": 2130,
      "osp": 2131,
      "Ġfriendly": 2132,
      "Ġstudent": 2133,
      "put": 2134,
      "Ġip": 2135,
      "amic": 2136,
      "Ġcreated": 2137,
      "Ġsubmit": 2138,
      "Ġgrad": 2139,
      "Ġcanada": 2140,
      "Ġflex": 2141,
      "Ġreviews": 2142,
      "Ġxxx": 2143,
      "ba": 2144,
      "ka": 2145,
      "Ġcountries": 2146,
      "Ġdress": 2147,
      "Ġsus": 2148,
      "Ġprec": 2149,
      "Ġinvestment": 2150,
      "gn": 2151,
      "arth": 2152,
      "Ġdecision": 2153,
      "ological": 2154,
      "gth": 2155,
      "Ġsong": 2156,
      "Ġstren": 2157,
      "df": 2158,
      "Ġcorn": 2159,
      "ington": 2160,
      "Ġviews": 2161,
      "Ġplayers": 2162,
      "Ġcup": 2163,
      "Ġmel": 2164,
      "Ġmicro": 2165,
      "Ġban": 2166,
      "Ġremember": 2167,
      "Ġgas": 2168,
      "Ġground": 2169,
      "aily": 2170,
      "Ġactivity": 2171,
      "Ġgirls": 2172,
      "Ġgraph": 2173,
      "Ġphysical": 2174,
      "Ġjud": 2175,
      "ga": 2176,
      "care": 2177,
      "Ġbaby": 2178,
      "iders": 2179,
      "Ġguarant": 2180,
      "Ġcele": 2181,
      "Ġcentral": 2182,
      "Ġfig": 2183,
      "Ġconsult": 2184,
      "Ġnor": 2185,
      "Ġscreen": 2186,
      "ertain": 2187,
      "light": 2188,
      "other": 2189,
      "Ġstrength": 2190,
      "tise": 2191,
      "ese": 2192,
      "Ġscript": 2193,
      "Ġblock": 2194,
      "Ġded": 2195,
      "Ġtransfer": 2196,
      "Ġcapital": 2197,
      "Ġcourt": 2198,
      "bon": 2199,
      "eks": 2200,
      "pro": 2201,
      "Ġexchange": 2202,
      "cy": 2203,
      "Ġmiss": 2204,
      "Ġfail": 2205,
      "Ġconstruction": 2206,
      "esn": 2207,
      "Ġdrive": 2208,
      "list": 2209,
      "Ġrol": 2210,
      "Ġemerg": 2211,
      "Ġcomplex": 2212,
      "izes": 2213,
      "Ġtouch": 2214,
      "Ġreceived": 2215,
      "Ġdaily": 2216,
      "Ġeye": 2217,
      "ublic": 2218,
      "Ġcompeti": 2219,
      "Ġrepair": 2220,
      "ata": 2221,
      "Ġhu": 2222,
      "Ġarm": 2223,
      "Ġdiffic": 2224,
      "elling": 2225,
      "mpt": 2226,
      "tick": 2227,
      "ship": 2228,
      "Ġplanning": 2229,
      "Ġremove": 2230,
      "Ġtesting": 2231,
      "Ġexerc": 2232,
      "Ġsolution": 2233,
      "Ġcloud": 2234,
      "Ġmessage": 2235,
      "Ġbehav": 2236,
      "Ġstructure": 2237,
      "wood": 2238,
      "Ġeast": 2239,
      "Ġresid": 2240,
      "mber": 2241,
      "Ġdark": 2242,
      "Ġteen": 2243,
      "Ġtips": 2244,
      "Ġregist": 2245,
      "Ġcalc": 2246,
      "Ġnove": 2247,
      "Ġrock": 2248,
      "ications": 2249,
      "ronic": 2250,
      "Ġwalk": 2251,
      "Ġsustain": 2252,
      "Ġdivers": 2253,
      "Ġtown": 2254,
      "Ġvacancy": 2255,
      "Ġspir": 2256,
      "lied": 2257,
      "istic": 2258,
      "Ġaccur": 2259,
      "Ġtechnical": 2260,
      "Ġindustrial": 2261,
      "Ġgerman": 2262,
      "Ġnorm": 2263,
      "abor": 2264,
      "duce": 2265,
      "Ġlux": 2266,
      "Ġjav": 2267,
      "Ġpoli": 2268,
      "Ġweb": 2269,
      "Ġfinance": 2270,
      "Ġlaws": 2271,
      "Ġaustral": 2272,
      "Ġaltern": 2273,
      "Ġbuilt": 2274,
      "Ġmethods": 2275,
      "enue": 2276,
      "Ġfiles": 2277,
      "Ġleave": 2278,
      "ael": 2279,
      "ull": 2280,
      "Ġcloth": 2281,
      "Ġexpect": 2282,
      "Ġchris": 2283,
      "Ġunderstanding": 2284,
      "Ġball": 2285,
      "Ġincluded": 2286,
      "Ġemployer": 2287,
      "Ġeconomic": 2288,
      "oon": 2289,
      "isions": 2290,
      "Ġislands": 2291,
      "Ġple": 2292,
      "Ġlif": 2293,
      "Ġrank": 2294,
      "Ġsug": 2295,
      "Ġthre": 2296,
      "Ġprotect": 2297,
      "Ġpin": 2298,
      "Ġemployees": 2299,
      "Ġnovember": 2300,
      "dy": 2301,
      "rest": 2302,
      "Ġqual": 2303,
      "kets": 2304,
      "Ġfrequ": 2305,
      "Ġresponsible": 2306,
      "Ġparen": 2307,
      "Ġwilli": 2308,
      "tery": 2309,
      "Ġsharing": 2310,
      "Ġconcern": 2311,
      "Ġjew": 2312,
      "Ġda": 2313,
      "Ġmonitor": 2314,
      "Ġemo": 2315,
      "Ġdoesn": 2316,
      "Ġamazing": 2317,
      "ii": 2318,
      "Ġgene": 2319,
      "Ġcards": 2320,
      "Ġinstruc": 2321,
      "ou": 2322,
      "illing": 2323,
      "ound": 2324,
      "Ġtransport": 2325,
      "oring": 2326,
      "Ġbusinesses": 2327,
      "ils": 2328,
      "acks": 2329,
      "Ġadvent": 2330,
      "ately": 2331,
      "orse": 2332,
      "Ġnew": 2333,
      "Ġmis": 2334,
      "Ġcareer": 2335,
      "Ġupdate": 2336,
      "Ġdead": 2337,
      "Ġshir": 2338,
      "Ġrefund": 2339,
      "Ġclin": 2340,
      "Ġcreating": 2341,
      "era": 2342,
      "ends": 2343,
      "Ġbroad": 2344,
      "Ġhighly": 2345,
      "Ġtakes": 2346,
      "Ġprocessing": 2347,
      "Ġdemand": 2348,
      "Ġder": 2349,
      "Ġexplore": 2350,
      "bert": 2351,
      "Ġsold": 2352,
      "Ġmech": 2353,
      "Ġassess": 2354,
      "gu": 2355,
      "Ġprinc": 2356,
      "Ġpurpose": 2357,
      "Ġleading": 2358,
      "Ġwindows": 2359,
      "Ġpresident": 2360,
      "Ġcompli": 2361,
      "Ġfresh": 2362,
      "Ġdiam": 2363,
      "rec": 2364,
      "Ġguid": 2365,
      "Ġbasic": 2366,
      "Ġrepublic": 2367,
      "Ġbeach": 2368,
      "Ġorganiz": 2369,
      "Ġpattern": 2370,
      "Ġautomatic": 2371,
      "Ġopportunity": 2372,
      "Ġcorrect": 2373,
      "mar": 2374,
      "Ġopportunities": 2375,
      "ints": 2376,
      "Ġwhe": 2377,
      "Ġsa": 2378,
      "Ġbea": 2379,
      "Ġrelease": 2380,
      "Ġidea": 2381,
      "va": 2382,
      "Ġss": 2383,
      "Ġhor": 2384,
      "Ġexcellent": 2385,
      "Ġlat": 2386,
      "gh": 2387,
      "Ġavoid": 2388,
      "Ġeasily": 2389,
      "atisf": 2390,
      "Ġadvant": 2391,
      "Ġpartner": 2392,
      "Ġbutton": 2393,
      "vid": 2394,
      "Ġvirtual": 2395,
      "dom": 2396,
      "mo": 2397,
      "itable": 2398,
      "Ġresponse": 2399,
      "Ġcelebr": 2400,
      "unts": 2401,
      "enced": 2402,
      "een": 2403,
      "wor": 2404,
      "ondon": 2405,
      "Ġmeasure": 2406,
      "Ġprogress": 2407,
      "Ġtwitter": 2408,
      "Ġdur": 2409,
      "Ġpercent": 2410,
      "den": 2411,
      "Ġweather": 2412,
      "Ġrecover": 2413,
      "Ġeval": 2414,
      "Ġdavid": 2415,
      "Ġeth": 2416,
      "Ġhal": 2417,
      "Ġviol": 2418,
      "Ġmc": 2419,
      "str": 2420,
      "Ġclient": 2421,
      "Ġtransform": 2422,
      "ef": 2423,
      "osing": 2424,
      "Ġexclus": 2425,
      "Ġshopping": 2426,
      "erator": 2427,
      "Ġdyn": 2428,
      "Ġchann": 2429,
      "Ġfire": 2430,
      "Ġfix": 2431,
      "Ġsepar": 2432,
      "Ġdifficult": 2433,
      "Ġfabric": 2434,
      "Ġles": 2435,
      "Ġmatter": 2436,
      "Ġcollabor": 2437,
      "Ġspr": 2438,
      "Ġacqu": 2439,
      "Ġrunning": 2440,
      "Ġhope": 2441,
      "Ġdegree": 2442,
      "Ġlost": 2443,
      "ashion": 2444,
      "Ġborn": 2445,
      "bor": 2446,
      "tr": 2447,
      "Ġjourney": 2448,
      "Ġinflu": 2449,
      "Ġtic": 2450,
      "olf": 2451,
      "ification": 2452,
      "Ġachieve": 2453,
      "Ġprincip": 2454,
      "Ġham": 2455,
      "Ġkitch": 2456,
      "roid": 2457,
      "Ġlevels": 2458,
      "Ġdouble": 2459,
      "ld": 2460,
      "Ġlondon": 2461,
      "Ġgeor": 2462,
      "uted": 2463,
      "Ġassociation": 2464,
      "Ġdirector": 2465,
      "estic": 2466,
      "Ġdim": 2467,
      "ida": 2468,
      "Ġfat": 2469,
      "Ġdepos": 2470,
      "Ġoutdo": 2471,
      "Ġcommitte": 2472,
      "yst": 2473,
      "Ġadap": 2474,
      "iforn": 2475,
      "Ġtrade": 2476,
      "Ġideas": 2477,
      "Ġconfirm": 2478,
      "Ġhyd": 2479,
      "Ġstrategy": 2480,
      "Ġmechan": 2481,
      "Ġlocated": 2482,
      "Ġnotice": 2483,
      "Ġsociety": 2484,
      "Ġdamage": 2485,
      "field": 2486,
      "Ġwritten": 2487,
      "agram": 2488,
      "ocol": 2489,
      "Ġpod": 2490,
      "ened": 2491,
      "Ġnutri": 2492,
      "Ġsatisf": 2493,
      "Ġjames": 2494,
      "Ġwebs": 2495,
      "Ġpaul": 2496,
      "Ġpsych": 2497,
      "Ġdu": 2498,
      "Ġconduc": 2499,
      "Ġhear": 2500,
      "Ġpromo": 2501,
      "Ġtraditional": 2502,
      "Ġul": 2503,
      "Ġgif": 2504,
      "Ġexhib": 2505,
      "Ġital": 2506,
      "Ġprofile": 2507,
      "inary": 2508,
      "Ġcab": 2509,
      "oms": 2510,
      "que": 2511,
      "inking": 2512,
      "Ġfashion": 2513,
      "Ġhealthy": 2514,
      "Ġculture": 2515,
      "Ġmorn": 2516,
      "Ġbirth": 2517,
      "ban": 2518,
      "Ġcaliforn": 2519,
      "Ġreplace": 2520,
      "Ġut": 2521,
      "Ġsettings": 2522,
      "Ġrestaur": 2523,
      "Ġcleaning": 2524,
      "Ġenhance": 2525,
      "Ġchina": 2526,
      "Ġcoming": 2527,
      "Ġincome": 2528,
      "Ġcore": 2529,
      "Ġhistor": 2530,
      "Ġprimary": 2531,
      "nes": 2532,
      "Ġphp": 2533,
      "Ġyo": 2534,
      "Ġability": 2535,
      "Ġvehicle": 2536,
      "Ġunc": 2537,
      "Ġath": 2538,
      "Ġresist": 2539,
      "Ġdefault": 2540,
      "Ġpractic": 2541,
      "burg": 2542,
      "Ġprevious": 2543,
      "Ġelectric": 2544,
      "Ġing": 2545,
      "Ġlad": 2546,
      "Ġhous": 2547,
      "iddle": 2548,
      "Ġconvers": 2549,
      "Ġapple": 2550,
      "mas": 2551,
      "vant": 2552,
      "Ġelement": 2553,
      "pa": 2554,
      "osed": 2555,
      "atives": 2556,
      "ribe": 2557,
      "Ġlabor": 2558,
      "Ġchapter": 2559,
      "Ġsamp": 2560,
      "Ġtopics": 2561,
      "Ġefficient": 2562,
      "gen": 2563,
      "Ġconfig": 2564,
      "Ġpatients": 2565,
      "Ġlicense": 2566,
      "Ġadjust": 2567,
      "ceed": 2568,
      "Ġow": 2569,
      "Ġusa": 2570,
      "fully": 2571,
      "Ġdevices": 2572,
      "Ġdraw": 2573,
      "Ġgarden": 2574,
      "Ġmetal": 2575,
      "Ġspring": 2576,
      "Ġtemper": 2577,
      "Ġmeeting": 2578,
      "Ġdream": 2579,
      "icate": 2580,
      "oke": 2581,
      "Ġloan": 2582,
      "epend": 2583,
      "da": 2584,
      "tian": 2585,
      "Ġarg": 2586,
      "Ġcategory": 2587,
      "Ġclimate": 2588,
      "Ġcalifornia": 2589,
      "Ġgal": 2590,
      "Ġwond": 2591,
      "Ġvill": 2592,
      "Ġseed": 2593,
      "Ġadvertis": 2594,
      "Ġmad": 2595,
      "Ġtrip": 2596,
      "Ġconnection": 2597,
      "Ġhelps": 2598,
      "Ġwarrant": 2599,
      "Ġgh": 2600,
      "acing": 2601,
      "Ġstone": 2602,
      "rench": 2603,
      "Ġfib": 2604,
      "Ġalex": 2605,
      "Ġthem": 2606,
      "Ġbrown": 2607,
      "gas": 2608,
      "ipe": 2609,
      "Ġscore": 2610,
      "lier": 2611,
      "Ġeffects": 2612,
      "Ġlimit": 2613,
      "Ġkitchen": 2614,
      "Ġbig": 2615,
      "emb": 2616,
      "Ġend": 2617,
      "Ġmichael": 2618,
      "Ġwife": 2619,
      "ologies": 2620,
      "Ġrecords": 2621,
      "ooth": 2622,
      "Ġdele": 2623,
      "order": 2624,
      "Ġsupply": 2625,
      "Ġriver": 2626,
      "Ġlibrary": 2627,
      "des": 2628,
      "Ġfair": 2629,
      "ado": 2630,
      "tively": 2631,
      "Ġdidn": 2632,
      "Ġnames": 2633,
      "Ġfilter": 2634,
      "yle": 2635,
      "asons": 2636,
      "ette": 2637,
      "ives": 2638,
      "Ġcharge": 2639,
      "Ġparents": 2640,
      "Ġcompon": 2641,
      "anger": 2642,
      "Ġannoun": 2643,
      "erve": 2644,
      "Ġvan": 2645,
      "ellow": 2646,
      "Ġmoment": 2647,
      "Ġreli": 2648,
      "Ġhosp": 2649,
      "Ġjos": 2650,
      "Ġindepend": 2651,
      "Ġkeyword": 2652,
      "Ġrain": 2653,
      "Ġdisease": 2654,
      "Ġsteps": 2655,
      "Ġsweet": 2656,
      "gle": 2657,
      "Ġcyc": 2658,
      "Ġlaunch": 2659,
      "Ġreports": 2660,
      "Ġpiece": 2661,
      "lor": 2662,
      "Ġsense": 2663,
      "Ġharm": 2664,
      "vey": 2665,
      "aking": 2666,
      "Ġexpand": 2667,
      "Ġmodels": 2668,
      "Ġcommunication": 2669,
      "Ġbeauty": 2670,
      "Ġchair": 2671,
      "asts": 2672,
      "Ġcott": 2673,
      "ague": 2674,
      "aves": 2675,
      "Ġevidence": 2676,
      "Ġfeet": 2677,
      "Ġweeks": 2678,
      "Ġvision": 2679,
      "Ġmill": 2680,
      "Ġfant": 2681,
      "Ġgoal": 2682,
      "Ġdoor": 2683,
      "Ġclassic": 2684,
      "Ġdriving": 2685,
      "Ġentire": 2686,
      "box": 2687,
      "mon": 2688,
      "ulf": 2689,
      "Ġattach": 2690,
      "Ġcalcul": 2691,
      "Ġdoll": 2692,
      "Ġaward": 2693,
      "Ġoccur": 2694,
      "Ġtexas": 2695,
      "inding": 2696,
      "Ġdecor": 2697,
      "Ġisn": 2698,
      "ections": 2699,
      "Ġcancer": 2700,
      "Ġwebsites": 2701,
      "Ġpor": 2702,
      "Ġbow": 2703,
      "Ġconsidered": 2704,
      "Ġreduce": 2705,
      "Ġarchit": 2706,
      "tish": 2707,
      "Ġfirm": 2708,
      "Ġrates": 2709,
      "Ġstudies": 2710,
      "Ġdeveloped": 2711,
      "Ġelements": 2712,
      "set": 2713,
      "Ġspot": 2714,
      "Ġfees": 2715,
      "Ġclasses": 2716,
      "Ġhotel": 2717,
      "Ġlives": 2718,
      "Ġanswer": 2719,
      "Ġstress": 2720,
      "Ġmorning": 2721,
      "zy": 2722,
      "Ġmiddle": 2723,
      "Ġchamp": 2724,
      "pped": 2725,
      "Ġhealthcare": 2726,
      "Ġswitch": 2727,
      "Ġauto": 2728,
      "Ġwoman": 2729,
      "Ġspirit": 2730,
      "reg": 2731,
      "Ġmother": 2732,
      "Ġstories": 2733,
      "Ġstatus": 2734,
      "emp": 2735,
      "amed": 2736,
      "iring": 2737,
      "uate": 2738,
      "los": 2739,
      "Ġma": 2740,
      "Ġber": 2741,
      "Ġfals": 2742,
      "Ġproced": 2743,
      "ky": 2744,
      "Ġrules": 2745,
      "Ġseek": 2746,
      "Ġconsist": 2747,
      "Ġupdated": 2748,
      "Ġtopic": 2749,
      "Ġfitness": 2750,
      "works": 2751,
      "Ġaware": 2752,
      "Ġearth": 2753,
      "Ġtit": 2754,
      "Ġheat": 2755,
      "Ġvisitors": 2756,
      "Ġcommittee": 2757,
      "Ġheld": 2758,
      "Ġpoll": 2759,
      "Ġflowers": 2760,
      "Ġcategories": 2761,
      "hood": 2762,
      "issions": 2763,
      "Ġnov": 2764,
      "Ġlap": 2765,
      "Ġloans": 2766,
      "Ġwire": 2767,
      "Ġflor": 2768,
      "roll": 2769,
      "ground": 2770,
      "house": 2771,
      "Ġsurface": 2772,
      "Ġnormal": 2773,
      "Ġstick": 2774,
      "acters": 2775,
      "Ġox": 2776,
      "Ġschools": 2777,
      "Ġstream": 2778,
      "Ġregistered": 2779,
      "iency": 2780,
      "iction": 2781,
      "Ġbrok": 2782,
      "Ġattention": 2783,
      "urch": 2784,
      "Ġship": 2785,
      "Ġcomput": 2786,
      "Ġunder": 2787,
      "Ġcharacters": 2788,
      "Ġwrite": 2789,
      "Ġserver": 2790,
      "urses": 2791,
      "Ġorigin": 2792,
      "reh": 2793,
      "ston": 2794,
      "Ġchines": 2795,
      "Ġdatab": 2796,
      "Ġmainten": 2797,
      "Ġmart": 2798,
      "Ġcreative": 2799,
      "Ġneg": 2800,
      "Ġcalend": 2801,
      "Ġfavorite": 2802,
      "key": 2803,
      "Ġchat": 2804,
      "Ġedit": 2805,
      "Ġbreed": 2806,
      "Ġposs": 2807,
      "ole": 2808,
      "Ġsar": 2809,
      "Ġtemperature": 2810,
      "Ġtag": 2811,
      "rup": 2812,
      "Ġod": 2813,
      "Ġinvolved": 2814,
      "ney": 2815,
      "Ġbag": 2816,
      "Ġgoals": 2817,
      "Ġbol": 2818,
      "ried": 2819,
      "place": 2820,
      "aling": 2821,
      "Ġlate": 2822,
      "Ġmemb": 2823,
      "Ġpartners": 2824,
      "Ġmaintenance": 2825,
      "zer": 2826,
      "Ġchance": 2827,
      "Ġentertain": 2828,
      "Ġschedule": 2829,
      "equ": 2830,
      "Ġaim": 2831,
      "Ġhands": 2832,
      "ij": 2833,
      "Ġburn": 2834,
      "Ġhit": 2835,
      "aint": 2836,
      "Ġparties": 2837,
      "Ġremain": 2838,
      "Ġexisting": 2839,
      "Ġproposed": 2840,
      "Ġcast": 2841,
      "Ġprovider": 2842,
      "tier": 2843,
      "Ġannual": 2844,
      "Ġcopyr": 2845,
      "rel": 2846,
      "Ġdrop": 2847,
      "to": 2848,
      "Ġless": 2849,
      "Ġcoach": 2850,
      "Ġnar": 2851,
      "Ġconference": 2852,
      "Ġcovid": 2853,
      "actions": 2854,
      "Ġwarm": 2855,
      "Ġfine": 2856,
      "Ġtun": 2857,
      "Ġinch": 2858,
      "osph": 2859,
      "ugs": 2860,
      "ression": 2861,
      "Ġtechnologies": 2862,
      "Ġtempl": 2863,
      "oting": 2864,
      "Ġnotes": 2865,
      "Ġplaying": 2866,
      "vement": 2867,
      "Ġcold": 2868,
      "Ġmembership": 2869,
      "lim": 2870,
      "Ġmur": 2871,
      "ita": 2872,
      "Ġdefin": 2873,
      "Ġvoice": 2874,
      "Ġmanufactur": 2875,
      "Ġfalse": 2876,
      "band": 2877,
      "fe": 2878,
      "gia": 2879,
      "Ġpdf": 2880,
      "Ġkind": 2881,
      "icken": 2882,
      "Ġgrowing": 2883,
      "Ġdiamond": 2884,
      "aign": 2885,
      "Ġmir": 2886,
      "Ġdistrict": 2887,
      "Ġconsent": 2888,
      "Ġtrain": 2889,
      "Ġinves": 2890,
      "Ġmatt": 2891,
      "Ġwaste": 2892,
      "Ġpurpos": 2893,
      "Ġregistration": 2894,
      "Ġproperties": 2895,
      "Ġmemory": 2896,
      "Ġaudio": 2897,
      "Ġmovie": 2898,
      "ilies": 2899,
      "ura": 2900,
      "Ġpu": 2901,
      "inger": 2902,
      "Ġfrench": 2903,
      "Ġstage": 2904,
      "Ġexcep": 2905,
      "Ġmental": 2906,
      "ersey": 2907,
      "Ġbonus": 2908,
      "Ġinstagram": 2909,
      "Ġcentre": 2910,
      "Ġplans": 2911,
      "Ġretail": 2912,
      "mer": 2913,
      "Ġcompreh": 2914,
      "Ġpredic": 2915,
      "Ġinvestig": 2916,
      "ki": 2917,
      "Ġcolumn": 2918,
      "Ġwear": 2919,
      "Ġextrem": 2920,
      "Ġcopyright": 2921,
      "Ġcoast": 2922,
      "Ġagreement": 2923,
      "Ġseo": 2924,
      "Ġpicture": 2925,
      "Ġpil": 2926,
      "Ġhill": 2927,
      "log": 2928,
      "Ġpric": 2929,
      "Ġchristmas": 2930,
      "force": 2931,
      "Ġpurposes": 2932,
      "ini": 2933,
      "uldn": 2934,
      "ache": 2935,
      "Ġwinter": 2936,
      "Ġchinese": 2937,
      "Ġparag": 2938,
      "uis": 2939,
      "erson": 2940,
      "Ġrub": 2941,
      "oma": 2942,
      "Ġgrade": 2943,
      "ika": 2944,
      "Ġstarting": 2945,
      "Ġfoundation": 2946,
      "icated": 2947,
      "Ġstudio": 2948,
      "Ġcampaign": 2949,
      "Ġcontinu": 2950,
      "Ġoverview": 2951,
      "Ġfactors": 2952,
      "off": 2953,
      "vin": 2954,
      "acts": 2955,
      "ided": 2956,
      "Ġvalid": 2957,
      "Ġparent": 2958,
      "Ġciv": 2959,
      "Ġcompil": 2960,
      "itiz": 2961,
      "Ġeyes": 2962,
      "Ġjersey": 2963,
      "ella": 2964,
      "Ġsport": 2965,
      "Ġlabel": 2966,
      "Ġpackage": 2967,
      "lusion": 2968,
      "Ġenvironmental": 2969,
      "Ġcul": 2970,
      "ena": 2971,
      "ably": 2972,
      "Ġfaq": 2973,
      "Ġoutdoor": 2974,
      "Ġslow": 2975,
      "Ġdomestic": 2976,
      "Ġpatient": 2977,
      "Ġcolour": 2978,
      "Ġarriv": 2979,
      "Ġedition": 2980,
      "Ġoperations": 2981,
      "Ġexercise": 2982,
      "fol": 2983,
      "ota": 2984,
      "Ġkit": 2985,
      "Ġremote": 2986,
      "Ġfron": 2987,
      "Ġsusp": 2988,
      "Ġcris": 2989,
      "arter": 2990,
      "Ġrap": 2991,
      "Ġappoint": 2992,
      "Ġpositive": 2993,
      "Ġarticles": 2994,
      "Ġcritical": 2995,
      "Ġgallery": 2996,
      "lig": 2997,
      "Ġproduce": 2998,
      "abled": 2999,
      "Ġroman": 3000,
      "Ġapps": 3001,
      "abilities": 3002,
      "Ġtree": 3003,
      "Ġupdates": 3004,
      "rep": 3005,
      "Ġgut": 3006,
      "Ġmention": 3007,
      "Ġpaid": 3008,
      "Ġcraft": 3009,
      "enses": 3010,
      "Ġproduced": 3011,
      "tivity": 3012,
      "bi": 3013,
      "med": 3014,
      "Ġnation": 3015,
      "otes": 3016,
      "Ġcomplet": 3017,
      "Ġencour": 3018,
      "Ġwarranty": 3019,
      "Ġarchitect": 3020,
      "Ġfight": 3021,
      "Ġstandards": 3022,
      "Ġchurch": 3023,
      "Ġrout": 3024,
      "ament": 3025,
      "Ġspl": 3026,
      "Ġengage": 3027,
      "Ġadvis": 3028,
      "Ġliter": 3029,
      "Ġmanager": 3030,
      "Ġincreasing": 3031,
      "Ġcalendar": 3032,
      "Ġfes": 3033,
      "Ġobject": 3034,
      "dr": 3035,
      "Ġfurn": 3036,
      "Ġplug": 3037,
      "Ġforce": 3038,
      "Ġfederal": 3039,
      "Ġrequires": 3040,
      "Ġmuse": 3041,
      "Ġcouple": 3042,
      "Ġha": 3043,
      "ieties": 3044,
      "Ġconsumer": 3045,
      "tch": 3046,
      "Ġstatis": 3047,
      "eping": 3048,
      "Ġselected": 3049,
      "Ġash": 3050,
      "Ġcourses": 3051,
      "Ġagency": 3052,
      "Ġcarry": 3053,
      "Ġstring": 3054,
      "Ġforms": 3055,
      "Ġoffering": 3056,
      "aning": 3057,
      "arance": 3058,
      "Ġbags": 3059,
      "ula": 3060,
      "Ġfeb": 3061,
      "Ġoccas": 3062,
      "Ġhaz": 3063,
      "Ġoffic": 3064,
      "tty": 3065,
      "Ġplayer": 3066,
      "Ġpremium": 3067,
      "Ġtherapy": 3068,
      "rast": 3069,
      "sa": 3070,
      "ano": 3071,
      "Ġenable": 3072,
      "Ġformat": 3073,
      "Ġlas": 3074,
      "active": 3075,
      "Ġbasket": 3076,
      "Ġerection": 3077,
      "Ġbalance": 3078,
      "acity": 3079,
      "Ġarts": 3080,
      "Ġshel": 3081,
      "umin": 3082,
      "Ġsea": 3083,
      "Ġleather": 3084,
      "antly": 3085,
      "Ġzo": 3086,
      "Ġwashington": 3087,
      "Ġeuropean": 3088,
      "wide": 3089,
      "Ġeur": 3090,
      "Ġtrading": 3091,
      "Ġabsol": 3092,
      "Ġbehavior": 3093,
      "Ġadvertising": 3094,
      "Ġdifference": 3095,
      "Ġfly": 3096,
      "Ġkh": 3097,
      "Ġhomes": 3098,
      "Ġcotton": 3099,
      "eration": 3100,
      "Ġwine": 3101,
      "Ġsets": 3102,
      "Ġadvice": 3103,
      "Ġwrong": 3104,
      "Ġcounter": 3105,
      "Ġpand": 3106,
      "Ġdie": 3107,
      "Ġyout": 3108,
      "Ġideal": 3109,
      "Ġworkers": 3110,
      "Ġchallenges": 3111,
      "Ġrand": 3112,
      "aker": 3113,
      "Ġpolicies": 3114,
      "Ġresource": 3115,
      "Ġaustralia": 3116,
      "uel": 3117,
      "Ġjus": 3118,
      "akers": 3119,
      "Ġincreased": 3120,
      "ios": 3121,
      "unk": 3122,
      "Ġneck": 3123,
      "Ġstri": 3124,
      "istan": 3125,
      "Ġandroid": 3126,
      "ands": 3127,
      "ops": 3128,
      "Ġunion": 3129,
      "Ġensuring": 3130,
      "ua": 3131,
      "pre": 3132,
      "yer": 3133,
      "Ġfuck": 3134,
      "Ġlos": 3135,
      "Ġincor": 3136,
      "Ġvalues": 3137,
      "vis": 3138,
      "Ġak": 3139,
      "Ġhall": 3140,
      "ival": 3141,
      "Ġmay": 3142,
      "Ġsymb": 3143,
      "Ġrelig": 3144,
      "su": 3145,
      "Ġpow": 3146,
      "Ġpump": 3147,
      "Ġtail": 3148,
      "ste": 3149,
      "Ġlines": 3150,
      "Ġrespond": 3151,
      "ography": 3152,
      "Ġmedicine": 3153,
      "earch": 3154,
      "tter": 3155,
      "Ġhab": 3156,
      "Ġscale": 3157,
      "Ġdemon": 3158,
      "encies": 3159,
      "Ġtrail": 3160,
      "Ġjobs": 3161,
      "Ġrespect": 3162,
      "Ġfamilies": 3163,
      "Ġteams": 3164,
      "Ġpowerful": 3165,
      "Ġbattery": 3166,
      "rit": 3167,
      "Ġtok": 3168,
      "Ġboy": 3169,
      "Ġgrant": 3170,
      "Ġsurv": 3171,
      "Ġcrypto": 3172,
      "mi": 3173,
      "Ġroof": 3174,
      "Ġassets": 3175,
      "mart": 3176,
      "wear": 3177,
      "Ġultim": 3178,
      "ae": 3179,
      "Ġpool": 3180,
      "etry": 3181,
      "Ġafford": 3182,
      "Ġandre": 3183,
      "Ġcompletely": 3184,
      "Ġgain": 3185,
      "Ġdesk": 3186,
      "Ġinstr": 3187,
      "Ġatte": 3188,
      "Ġafrica": 3189,
      "Ġbang": 3190,
      "Ġtab": 3191,
      "Ġshar": 3192,
      "Ġpretty": 3193,
      "Ġfriday": 3194,
      "utive": 3195,
      "Ġdating": 3196,
      "Ġvisual": 3197,
      "men": 3198,
      "Ġwes": 3199,
      "Ġvib": 3200,
      "Ġpassion": 3201,
      "Ġstrategies": 3202,
      "Ġradio": 3203,
      "Ġast": 3204,
      "Ġreasons": 3205,
      "Ġflat": 3206,
      "Ġadditionally": 3207,
      "tors": 3208,
      "Ġcy": 3209,
      "Ġnice": 3210,
      "Ġprop": 3211,
      "Ġconcept": 3212,
      "Ġexpert": 3213,
      "Ġrelevant": 3214,
      "Ġanimal": 3215,
      "ros": 3216,
      "Ġproviders": 3217,
      "Ġrelax": 3218,
      "Ġtags": 3219,
      "isc": 3220,
      "Ġreference": 3221,
      "olic": 3222,
      "gs": 3223,
      "Ġtap": 3224,
      "Ġinher": 3225,
      "coin": 3226,
      "Ġhandle": 3227,
      "Ġholiday": 3228,
      "Ġexperiences": 3229,
      "Ġmex": 3230,
      "Ġicon": 3231,
      "Ġnavigation": 3232,
      "Ġice": 3233,
      "Ġdisp": 3234,
      "ett": 3235,
      "Ġedge": 3236,
      "Ġsnow": 3237,
      "Ġadministr": 3238,
      "istry": 3239,
      "Ġquote": 3240,
      "Ġpeace": 3241,
      "Ġsilver": 3242,
      "Ġcatal": 3243,
      "Ġpiz": 3244,
      "Ġjapanese": 3245,
      "Ġyouth": 3246,
      "cs": 3247,
      "urren": 3248,
      "Ġforeign": 3249,
      "Ġpractices": 3250,
      "Ġfan": 3251,
      "iving": 3252,
      "Ġrose": 3253,
      "Ġmonday": 3254,
      "Ġiterator": 3255,
      "Ġcruc": 3256,
      "Ġlake": 3257,
      "Ġleague": 3258,
      "ifi": 3259,
      "Ġguard": 3260,
      "Ġheavy": 3261,
      "Ġwell": 3262,
      "Ġyoutube": 3263,
      "Ġpair": 3264,
      "Ġwarn": 3265,
      "rie": 3266,
      "Ġbudget": 3267,
      "Ġextremely": 3268,
      "Ġfrontier": 3269,
      "Ġbay": 3270,
      "amin": 3271,
      "ums": 3272,
      "Ġepis": 3273,
      "inn": 3274,
      "agn": 3275,
      "Ġrace": 3276,
      "Ġmini": 3277,
      "Ġstatement": 3278,
      "bre": 3279,
      "Ġmission": 3280,
      "itary": 3281,
      "Ġopt": 3282,
      "Ġspend": 3283,
      "Ġrow": 3284,
      "Ġsecret": 3285,
      "Ġhybr": 3286,
      "Ġdedicated": 3287,
      "Ġcompared": 3288,
      "Ġcarol": 3289,
      "Ġeditor": 3290,
      "the": 3291,
      "Ġanc": 3292,
      "Ġshared": 3293,
      "iques": 3294,
      "Ġdatabase": 3295,
      "Ġcrow": 3296,
      "Ġmagaz": 3297,
      "Ġsuccessful": 3298,
      "Ġoperation": 3299,
      "Ġprior": 3300,
      "Ġchannel": 3301,
      "pn": 3302,
      "Ġsession": 3303,
      "Ġsector": 3304,
      "Ġseat": 3305,
      "Ġexperts": 3306,
      "sha": 3307,
      "Ġsubs": 3308,
      "Ġmarkets": 3309,
      "Ġidentify": 3310,
      "Ġchemical": 3311,
      "Ġquanti": 3312,
      "Ġfruit": 3313,
      "Ġdepending": 3314,
      "Ġscienti": 3315,
      "Ġdeposit": 3316,
      "usion": 3317,
      "Ġvary": 3318,
      "Ġcomfortable": 3319,
      "Ġdetermine": 3320,
      "my": 3321,
      "Ġwish": 3322,
      "omas": 3323,
      "Ġshape": 3324,
      "ancing": 3325,
      "Ġbroth": 3326,
      "ults": 3327,
      "Ġintell": 3328,
      "Ġdocuments": 3329,
      "Ġdomin": 3330,
      "Ġlargest": 3331,
      "Ġhuge": 3332,
      "hab": 3333,
      "lec": 3334,
      "Ġju": 3335,
      "Ġcompos": 3336,
      "Ġheight": 3337,
      "Ġfunctional": 3338,
      "Ġplatforms": 3339,
      "Ġfootball": 3340,
      "Ġcomprehensive": 3341,
      "tar": 3342,
      "Ġsolid": 3343,
      "Ġatm": 3344,
      "fl": 3345,
      "Ġsexual": 3346,
      "Ġteaching": 3347,
      "Ġadvantage": 3348,
      "Ġbrid": 3349,
      "Ġassign": 3350,
      "Ġsmith": 3351,
      "Ġbenefit": 3352,
      "hy": 3353,
      "Ġcoff": 3354,
      "Ġnumer": 3355,
      "Ġcarbon": 3356,
      "Ġsetting": 3357,
      "Ġgamb": 3358,
      "Ġdrag": 3359,
      "Ġcorporate": 3360,
      "cil": 3361,
      "po": 3362,
      "Ġstation": 3363,
      "Ġram": 3364,
      "Ġfinally": 3365,
      "Ġpoly": 3366,
      "Ġpolitical": 3367,
      "Ġdar": 3368,
      "Ġwith": 3369,
      "Ġsituation": 3370,
      "Ġsubscribe": 3371,
      "Ġbritish": 3372,
      "Ġreb": 3373,
      "Ġwil": 3374,
      "Ġactual": 3375,
      "ously": 3376,
      "Ġsmooth": 3377,
      "Ġcompliance": 3378,
      "ml": 3379,
      "Ġmath": 3380,
      "Ġtes": 3381,
      "Ġcock": 3382,
      "lock": 3383,
      "ffic": 3384,
      "ailed": 3385,
      "Ġexpected": 3386,
      "Ġowner": 3387,
      "Ġmovement": 3388,
      "Ġaudience": 3389,
      "ris": 3390,
      "Ġdro": 3391,
      "Ġshow": 3392,
      "Ġorganizations": 3393,
      "Ġpush": 3394,
      "Ġchain": 3395,
      "Ġmeaning": 3396,
      "prise": 3397,
      "ola": 3398,
      "Ġads": 3399,
      "Ġtechniques": 3400,
      "Ġcapacity": 3401,
      "Ġawards": 3402,
      "Ġvent": 3403,
      "Ġadult": 3404,
      "Ġscen": 3405,
      "Ġpharm": 3406,
      "ternal": 3407,
      "Ġbackground": 3408,
      "Ġmotor": 3409,
      "Ġuns": 3410,
      "Ġmary": 3411,
      "Ġrepe": 3412,
      "Ġprofessionals": 3413,
      "Ġdriver": 3414,
      "Ġinstitute": 3415,
      "Ġlash": 3416,
      "Ġever": 3417,
      "Ġstuff": 3418,
      "che": 3419,
      "Ġjes": 3420,
      "ensions": 3421,
      "Ġimport": 3422,
      "Ġeffort": 3423,
      "Ġapplicable": 3424,
      "Ġbrands": 3425,
      "Ġmaximum": 3426,
      "Ġvarieties": 3427,
      "Ġfestiv": 3428,
      "Ġbasis": 3429,
      "Ġlock": 3430,
      "Ġprotected": 3431,
      "Ġexperienced": 3432,
      "Ġdesigns": 3433,
      "Ġparagraph": 3434,
      "lc": 3435,
      "ago": 3436,
      "Ġveget": 3437,
      "Ġbitcoin": 3438,
      "Ġdiet": 3439,
      "orary": 3440,
      "elle": 3441,
      "Ġcompar": 3442,
      "bian": 3443,
      "Ġsizes": 3444,
      "Ġpul": 3445,
      "ato": 3446,
      "Ġnick": 3447,
      "Ġneigh": 3448,
      "Ġoffered": 3449,
      "Ġinstallation": 3450,
      "Ġrecommended": 3451,
      "Ġfuji": 3452,
      "gy": 3453,
      "Ġmut": 3454,
      "Ġletter": 3455,
      "Ġmedium": 3456,
      "Ġmeasures": 3457,
      "Ġchanged": 3458,
      "Ġcream": 3459,
      "Ġguy": 3460,
      "Ġeducational": 3461,
      "Ġreported": 3462,
      "Ġautomatically": 3463,
      "inct": 3464,
      "Ġsund": 3465,
      "Ġped": 3466,
      "Ġsep": 3467,
      "Ġko": 3468,
      "Ġthinking": 3469,
      "Ġeffec": 3470,
      "cr": 3471,
      "urb": 3472,
      "Ġfold": 3473,
      "Ġhorse": 3474,
      "char": 3475,
      "loc": 3476,
      "Ġplastic": 3477,
      "Ġboost": 3478,
      "inder": 3479,
      "Ġfranc": 3480,
      "Ġsatur": 3481,
      "wal": 3482,
      "Ġvit": 3483,
      "rael": 3484,
      "Ġapplied": 3485,
      "Ġblu": 3486,
      "Ġeasier": 3487,
      "Ġsquare": 3488,
      "Ġfee": 3489,
      "Ġmiles": 3490,
      "Ġfeedback": 3491,
      "Ġaid": 3492,
      "Ġtask": 3493,
      "Ġoce": 3494,
      "Ġagric": 3495,
      "Ġgaming": 3496,
      "Ġcommunities": 3497,
      "Ġconnected": 3498,
      "Ġrule": 3499,
      "Ġkar": 3500,
      "Ġforest": 3501,
      "Ġpanel": 3502,
      "Ġestablished": 3503,
      "Ġintellig": 3504,
      "Ġeg": 3505,
      "Ġven": 3506,
      "ema": 3507,
      "Ġmoving": 3508,
      "ughter": 3509,
      "Ġnotification": 3510,
      "oked": 3511,
      "Ġalb": 3512,
      "Ġsources": 3513,
      "Ġingred": 3514,
      "uts": 3515,
      "Ġalle": 3516,
      "Ġinterview": 3517,
      "Ġurl": 3518,
      "Ġmas": 3519,
      "Ġattrib": 3520,
      "Ġpleas": 3521,
      "Ġindependent": 3522,
      "une": 3523,
      "olar": 3524,
      "rain": 3525,
      "Ġorganic": 3526,
      "Ġadventure": 3527,
      "Ġwestern": 3528,
      "ona": 3529,
      "eph": 3530,
      "Ġdecisions": 3531,
      "Ġvolume": 3532,
      "Ġwait": 3533,
      "Ġbathroom": 3534,
      "gers": 3535,
      "Ġmort": 3536,
      "essor": 3537,
      "Ġspan": 3538,
      "Ġcrucial": 3539,
      "istics": 3540,
      "oles": 3541,
      "Ġalg": 3542,
      "Ġsexy": 3543,
      "Ġauthority": 3544,
      "Ġfunding": 3545,
      "Ġfemale": 3546,
      "Ġhop": 3547,
      "ished": 3548,
      "Ġfuneral": 3549,
      "Ġpictures": 3550,
      "Ġexecutive": 3551,
      "Ġguarantee": 3552,
      "Ġbot": 3553,
      "Ġhur": 3554,
      "Ġdepend": 3555,
      "ye": 3556,
      "entic": 3557,
      "Ġdance": 3558,
      "una": 3559,
      "Ġcolors": 3560,
      "Ġze": 3561,
      "Ġflav": 3562,
      "Ġanalytics": 3563,
      "Ġefficiency": 3564,
      "Ġgifts": 3565,
      "eries": 3566,
      "Ġreve": 3567,
      "Ġconsum": 3568,
      "Ġasian": 3569,
      "idden": 3570,
      "coming": 3571,
      "Ġsymbol": 3572,
      "Ġtold": 3573,
      "Ġosha": 3574,
      "Ġmont": 3575,
      "Ġisrael": 3576,
      "Ġstored": 3577,
      "Ġbelie": 3578,
      "Ġvirgin": 3579,
      "Ġemergency": 3580,
      "eness": 3581,
      "Ġnative": 3582,
      "Ġadding": 3583,
      "Ġminim": 3584,
      "Ġavail": 3585,
      "Ġemployee": 3586,
      "Ġlandsc": 3587,
      "Ġoccasion": 3588,
      "down": 3589,
      "Ġsud": 3590,
      "Ġpig": 3591,
      "isation": 3592,
      "Ġinqu": 3593,
      "Ġrobert": 3594,
      "Ġdepth": 3595,
      "Ġchallenge": 3596,
      "Ġagricult": 3597,
      "Ġshap": 3598,
      "Ġopin": 3599,
      "Ġentertainment": 3600,
      "mark": 3601,
      "vity": 3602,
      "icking": 3603,
      "Ġdomain": 3604,
      "Ġgeneration": 3605,
      "Ġfertil": 3606,
      "Ġrecovery": 3607,
      "Ġbio": 3608,
      "Ġquarter": 3609,
      "Ġbraz": 3610,
      "rical": 3611,
      "Ġmale": 3612,
      "anda": 3613,
      "Ġjump": 3614,
      "tives": 3615,
      "Ġfeeling": 3616,
      "Ġeconomy": 3617,
      "Ġtam": 3618,
      "Ġchief": 3619,
      "Ġpregn": 3620,
      "Ġreturned": 3621,
      "Ġbedroom": 3622,
      "Ġpieces": 3623,
      "Ġwedding": 3624,
      "Ġhospital": 3625,
      "iet": 3626,
      "Ġfather": 3627,
      "Ġhus": 3628,
      "Ġpassed": 3629,
      "Ġobj": 3630,
      "Ġcovered": 3631,
      "Ġchanging": 3632,
      "Ġpayments": 3633,
      "Ġmagn": 3634,
      "Ġfunds": 3635,
      "Ġselling": 3636,
      "Ġstraight": 3637,
      "Ġinjury": 3638,
      "Ġfixed": 3639,
      "xt": 3640,
      "Ġamate": 3641,
      "Ġreleased": 3642,
      "Ġexclusive": 3643,
      "Ġamb": 3644,
      "Ġreti": 3645,
      "Ġcommission": 3646,
      "Ġtracking": 3647,
      "Ġjava": 3648,
      "Ġtemplate": 3649,
      "ania": 3650,
      "Ġfunctions": 3651,
      "Ġimag": 3652,
      "Ġmusc": 3653,
      "Ġcandid": 3654,
      "Ġinnovation": 3655,
      "Ġbbc": 3656,
      "Ġdani": 3657,
      "Ġfel": 3658,
      "Ġtend": 3659,
      "iture": 3660,
      "rene": 3661,
      "Ġmanner": 3662,
      "Ġcomponents": 3663,
      "ded": 3664,
      "gets": 3665,
      "Ġplayed": 3666,
      "Ġadvance": 3667,
      "Ġbrain": 3668,
      "Ġintroduction": 3669,
      "water": 3670,
      "ami": 3671,
      "Ġyellow": 3672,
      "ikes": 3673,
      "Ġalternative": 3674,
      "hr": 3675,
      "Ġmid": 3676,
      "illa": 3677,
      "fa": 3678,
      "isco": 3679,
      "aren": 3680,
      "Ġton": 3681,
      "amb": 3682,
      "Ġopen": 3683,
      "Ġinternal": 3684,
      "Ġsustainable": 3685,
      "Ġjewel": 3686,
      "Ġsoil": 3687,
      "Ġinstance": 3688,
      "Ġpresent": 3689,
      "Ġworld": 3690,
      "Ġoccup": 3691,
      "Ġcertified": 3692,
      "Ġadministration": 3693,
      "skip": 3694,
      "Ġiron": 3695,
      "Ġamp": 3696,
      "Ġtog": 3697,
      "Ġnon": 3698,
      "Ġlocations": 3699,
      "Ġsurvey": 3700,
      "Ġmachines": 3701,
      "oe": 3702,
      "any": 3703,
      "Ġcher": 3704,
      "Ġassistance": 3705,
      "Ġclinical": 3706,
      "ien": 3707,
      "uke": 3708,
      "wh": 3709,
      "Ġloved": 3710,
      "Ġtypically": 3711,
      "Ġoperating": 3712,
      "Ġlaptop": 3713,
      "phone": 3714,
      "Ġlisted": 3715,
      "Ġfields": 3716,
      "Ġpricing": 3717,
      "col": 3718,
      "Ġcoverage": 3719,
      "Ġdistribution": 3720,
      "uro": 3721,
      "aters": 3722,
      "Ġtan": 3723,
      "Ġcharges": 3724,
      "Ġswim": 3725,
      "Ġdemoc": 3726,
      "Ġfacilities": 3727,
      "Ġimplementation": 3728,
      "Ġtrends": 3729,
      "Ġpizza": 3730,
      "Ġcos": 3731,
      "Ġpolice": 3732,
      "lands": 3733,
      "ext": 3734,
      "cl": 3735,
      "Ġjord": 3736,
      "Ġserve": 3737,
      "Ġrecip": 3738,
      "Ġcommunications": 3739,
      "Ġjesus": 3740,
      "Ġactions": 3741,
      "Ġseeds": 3742,
      "Ġcompet": 3743,
      "Ġtraffic": 3744,
      "Ġleadership": 3745,
      "Ġdynamic": 3746,
      "Ġpodcast": 3747,
      "Ġreliable": 3748,
      "Ġcivil": 3749,
      "cks": 3750,
      "Ġoh": 3751,
      "iger": 3752,
      "Ġchicken": 3753,
      "Ġleak": 3754,
      "anta": 3755,
      "Ġauthentic": 3756,
      "head": 3757,
      "Ġwilliams": 3758,
      "Ġinstructions": 3759,
      "Ġpad": 3760,
      "Ġster": 3761,
      "Ġwonder": 3762,
      "Ġgolf": 3763,
      "Ġtits": 3764,
      "Ġsupplies": 3765,
      "Ġshoes": 3766,
      "Ġinitial": 3767,
      "Ġmerch": 3768,
      "iate": 3769,
      "aper": 3770,
      "Ġscal": 3771,
      "tf": 3772,
      "Ġib": 3773,
      "Ġslo": 3774,
      "Ġsuitable": 3775,
      "Ġbreath": 3776,
      "bar": 3777,
      "hol": 3778,
      "Ġtow": 3779,
      "Ġluc": 3780,
      "Ġegg": 3781,
      "Ġspons": 3782,
      "Ġcollections": 3783,
      "hd": 3784,
      "Ġaren": 3785,
      "Ġhang": 3786,
      "Ġstrip": 3787,
      "oted": 3788,
      "Ġvin": 3789,
      "rap": 3790,
      "Ġfrance": 3791,
      "Ġprocesses": 3792,
      "Ġaffili": 3793,
      "Ġlanguages": 3794,
      "Ġmountain": 3795,
      "Ġsole": 3796,
      "ype": 3797,
      "Ġlisten": 3798,
      "Ġresponsibility": 3799,
      "Ġmuseum": 3800,
      "Ġdin": 3801,
      "lets": 3802,
      "Ġhorn": 3803,
      "unter": 3804,
      "Ġprote": 3805,
      "Ġallowed": 3806,
      "esh": 3807,
      "eline": 3808,
      "Ġdoctor": 3809,
      "Ġmilitary": 3810,
      "Ġcouncil": 3811,
      "Ġray": 3812,
      "Ġspread": 3813,
      "Ġarab": 3814,
      "asting": 3815,
      "Ġdetailed": 3816,
      "Ġsurround": 3817,
      "Ġpopulation": 3818,
      "tech": 3819,
      "inter": 3820,
      "esome": 3821,
      "Ġconver": 3822,
      "Ġcontain": 3823,
      "Ġsigns": 3824,
      "Ġelectronic": 3825,
      "Ġluxury": 3826,
      "Ġvalley": 3827,
      "Ġasia": 3828,
      "Ġatl": 3829,
      "Ġcamera": 3830,
      "Ġgay": 3831,
      "Ġrare": 3832,
      "Ġbound": 3833,
      "ervation": 3834,
      "Ġclothing": 3835,
      "Ġassessment": 3836,
      "Ġcoffee": 3837,
      "Ġsaturday": 3838,
      "Ġfort": 3839,
      "Ġseg": 3840,
      "Ġefforts": 3841,
      "Ġmagic": 3842,
      "Ġaccurate": 3843,
      "Ġattack": 3844,
      "Ġsenior": 3845,
      "Ġdemonstr": 3846,
      "Ġatmosph": 3847,
      "Ġnumerous": 3848,
      "Ġput": 3849,
      "Ġhaw": 3850,
      "erse": 3851,
      "Ġcentury": 3852,
      "fo": 3853,
      "kt": 3854,
      "uv": 3855,
      "Ġmand": 3856,
      "aps": 3857,
      "Ġdish": 3858,
      "Ġincred": 3859,
      "Ġtoile": 3860,
      "Ġprob": 3861,
      "ups": 3862,
      "Ġexpertise": 3863,
      "Ġchoosing": 3864,
      "letter": 3865,
      "yers": 3866,
      "utor": 3867,
      "Ġteeth": 3868,
      "Ġcompleted": 3869,
      "Ġamazon": 3870,
      "Ġmexico": 3871,
      "iro": 3872,
      "uz": 3873,
      "well": 3874,
      "Ġdir": 3875,
      "Ġry": 3876,
      "Ġbuying": 3877,
      "Ġaffect": 3878,
      "Ġarrange": 3879,
      "Ġtwe": 3880,
      "agra": 3881,
      "ugg": 3882,
      "Ġye": 3883,
      "Ġpaint": 3884,
      "Ġavailability": 3885,
      "gar": 3886,
      "Ġprofit": 3887,
      "Ġlots": 3888,
      "bl": 3889,
      "Ġsurg": 3890,
      "Ġaccounts": 3891,
      "Ġportfol": 3892,
      "Ġregional": 3893,
      "Ġshirt": 3894,
      "Ġmagazine": 3895,
      "Ġquantity": 3896,
      "omp": 3897,
      "Ġfir": 3898,
      "Ġwel": 3899,
      "Ġkore": 3900,
      "Ġroyal": 3901,
      "Ġsuite": 3902,
      "Ġparti": 3903,
      "Ġmode": 3904,
      "Ġsv": 3905,
      "Ġintel": 3906,
      "Ġacademic": 3907,
      "Ġexternal": 3908,
      "Ġcookie": 3909,
      "Ġtalent": 3910,
      "Ġpoc": 3911,
      "amm": 3912,
      "Ġdecided": 3913,
      "Ġconstit": 3914,
      "Ġfinding": 3915,
      "aving": 3916,
      "Ġattrac": 3917,
      "Ġshares": 3918,
      "Ġlarger": 3919,
      "Ġpaced": 3920,
      "Ġdefinition": 3921,
      "Ġocean": 3922,
      "Ġpuss": 3923,
      "Ġhidden": 3924,
      "elines": 3925,
      "Ġware": 3926,
      "Ġunkn": 3927,
      "Ġoblig": 3928,
      "Ġfigure": 3929,
      "Ġdental": 3930,
      "Ġmore": 3931,
      "Ġbike": 3932,
      "Ġrail": 3933,
      "ander": 3934,
      "emic": 3935,
      "mitted": 3936,
      "Ġinstalled": 3937,
      "Ġcombination": 3938,
      "Ġsugges": 3939,
      "inate": 3940,
      "Ġrichard": 3941,
      "Ġfinished": 3942,
      "Ġreplacement": 3943,
      "Ġrang": 3944,
      "Ġposter": 3945,
      "Ġaccomp": 3946,
      "Ġcryst": 3947,
      "Ġrussian": 3948,
      "Ġfrequently": 3949,
      "Ġjordan": 3950,
      "cd": 3951,
      "Ġult": 3952,
      "Ġtay": 3953,
      "Ġtests": 3954,
      "iles": 3955,
      "Ġvul": 3956,
      "Ġcontinued": 3957,
      "Ġdiscussion": 3958,
      "Ġafrican": 3959,
      "Ġfro": 3960,
      "Ġluck": 3961,
      "Ġbright": 3962,
      "Ġinsights": 3963,
      "Ġupload": 3964,
      "Ġhyper": 3965,
      "Ġmattress": 3966,
      "lation": 3967,
      "lines": 3968,
      "erved": 3969,
      "Ġcitiz": 3970,
      "Ġbor": 3971,
      "Ġeat": 3972,
      "Ġshot": 3973,
      "Ġminimum": 3974,
      "Ġlogo": 3975,
      "Ġmatches": 3976,
      "Ġcaused": 3977,
      "Ġros": 3978,
      "Ġtrees": 3979,
      "Ġslot": 3980,
      "Ġbattle": 3981,
      "Ġcultural": 3982,
      "Ġhelping": 3983,
      "Ġkingdom": 3984,
      "Ġcompetition": 3985,
      "Ġgenetic": 3986,
      "Ġstars": 3987,
      "Ġceo": 3988,
      "Ġframework": 3989,
      "Ġgermany": 3990,
      "Ġflorida": 3991,
      "rors": 3992,
      "ald": 3993,
      "Ġbob": 3994,
      "achel": 3995,
      "Ġbrowse": 3996,
      "Ġsheet": 3997,
      "Ġregulations": 3998,
      "Ġunknown": 3999,
      "Ġly": 4000,
      "Ġcoop": 4001,
      "utely": 4002,
      "Ġthomas": 4003,
      "Ġbrought": 4004,
      "Ġnewsletter": 4005,
      "Ġpapers": 4006,
      "Ġingredients": 4007,
      "Ġamateur": 4008,
      "Ġconcerns": 4009,
      "lab": 4010,
      "Ġrene": 4011,
      "Ġpros": 4012,
      "Ġdiagn": 4013,
      "Ġfrag": 4014,
      "Ġappearance": 4015,
      "Ġangeles": 4016,
      "Ġfont": 4017,
      "Ġlack": 4018,
      "iry": 4019,
      "Ġdeveloping": 4020,
      "Ġprogramming": 4021,
      "Ġabst": 4022,
      "Ġproperly": 4023,
      "Ġviagra": 4024,
      "Ġcircum": 4025,
      "Ġadvertise": 4026,
      "Ġowners": 4027,
      "Ġmanufacturer": 4028,
      "Ġadministrator": 4029,
      "fic": 4030,
      "Ġpure": 4031,
      "Ġchic": 4032,
      "Ġunits": 4033,
      "Ġmanual": 4034,
      "Ġpartnership": 4035,
      "Ġmonitoring": 4036,
      "ns": 4037,
      "uable": 4038,
      "wards": 4039,
      "Ġsoul": 4040,
      "Ġengland": 4041,
      "Ġstretch": 4042,
      "Ġfaith": 4043,
      "Ġpricesmart": 4044,
      "Ġallowing": 4045,
      "reprene": 4046,
      "icious": 4047,
      "Ġreality": 4048,
      "Ġsubst": 4049,
      "Ġdistinct": 4050,
      "Ġelig": 4051,
      "Ġfurniture": 4052,
      "ora": 4053,
      "Ġfans": 4054,
      "Ġten": 4055,
      "Ġspect": 4056,
      "Ġcarp": 4057,
      "Ġsolar": 4058,
      "Ġrestric": 4059,
      "Ġtrial": 4060,
      "Ġhusband": 4061,
      "Ġfrank": 4062,
      "Ġlinked": 4063,
      "Ġthreat": 4064,
      "Ġinfluence": 4065,
      "Ġmom": 4066,
      "Ġmature": 4067,
      "ials": 4068,
      "Ġyield": 4069,
      "ername": 4070,
      "onym": 4071,
      "Ġwheel": 4072,
      "Ġabsolutely": 4073,
      "Ġinput": 4074,
      "Ġrating": 4075,
      "Ġpresence": 4076,
      "Ġkeeping": 4077,
      "Ġhelpful": 4078,
      "Ġchristian": 4079,
      "oy": 4080,
      "orith": 4081,
      "Ġmast": 4082,
      "Ġrig": 4083,
      "Ġscr": 4084,
      "Ġdesire": 4085,
      "Ġflash": 4086,
      "Ġdan": 4087,
      "Ġovers": 4088,
      "Ġdeals": 4089,
      "Ġtrump": 4090,
      "ells": 4091,
      "Ġdirection": 4092,
      "Ġcatalog": 4093,
      "Ġpink": 4094,
      "Ġbm": 4095,
      "Ġta": 4096,
      "Ġheard": 4097,
      "Ġhearing": 4098,
      "Ġbeat": 4099,
      "Ġimpress": 4100,
      "Ġestimated": 4101,
      "Ġchampion": 4102,
      "Ġofficer": 4103,
      "Ġmold": 4104,
      "oli": 4105,
      "Ġken": 4106,
      "Ġparam": 4107,
      "Ġcells": 4108,
      "Ġearlier": 4109,
      "wa": 4110,
      "Ġhub": 4111,
      "eless": 4112,
      "Ġveter": 4113,
      "Ġsequ": 4114,
      "Ġcompare": 4115,
      "Ġdelivered": 4116,
      "Ġiran": 4117,
      "Ġalgorith": 4118,
      "fit": 4119,
      "missions": 4120,
      "uy": 4121,
      "abb": 4122,
      "Ġlee": 4123,
      "Ġaccident": 4124,
      "Ġelev": 4125,
      "Ġincorpor": 4126,
      "Ġaffordable": 4127,
      "ias": 4128,
      "Ġsaint": 4129,
      "Ġblow": 4130,
      "Ġgri": 4131,
      "Ġwit": 4132,
      "uries": 4133,
      "iration": 4134,
      "Ġtranslation": 4135,
      "Ġgambling": 4136,
      "dra": 4137,
      "sts": 4138,
      "Ġguest": 4139,
      "Ġstatistics": 4140,
      "ja": 4141,
      "Ġsin": 4142,
      "Ġjess": 4143,
      "Ġacid": 4144,
      "Ġentreprene": 4145,
      "Ġpowered": 4146,
      "Ġresearch": 4147,
      "Ġbear": 4148,
      "Ġfeatured": 4149,
      "Ġaccepted": 4150,
      "nesday": 4151,
      "Ġepisode": 4152,
      "Ġportfolio": 4153,
      "eed": 4154,
      "rad": 4155,
      "Ġclar": 4156,
      "Ġemployment": 4157,
      "Ġimproved": 4158,
      "Ġhardware": 4159,
      "Ġmilk": 4160,
      "Ġwalking": 4161,
      "Ġpok": 4162,
      "alle": 4163,
      "Ġtues": 4164,
      "Ġresolution": 4165,
      "iana": 4166,
      "Ġsupported": 4167,
      "Ġreflect": 4168,
      "Ġfounder": 4169,
      "Ġbrazil": 4170,
      "fts": 4171,
      "erts": 4172,
      "onom": 4173,
      "Ġunderg": 4174,
      "Ġupgr": 4175,
      "Ġforg": 4176,
      "Ġstores": 4177,
      "Ġpoor": 4178,
      "Ġrandom": 4179,
      "vd": 4180,
      "oration": 4181,
      "Ġtas": 4182,
      "Ġna": 4183,
      "ulated": 4184,
      "Ġentity": 4185,
      "lar": 4186,
      "met": 4187,
      "Ġiv": 4188,
      "Ġcit": 4189,
      "tile": 4190,
      "Ġdial": 4191,
      "ilit": 4192,
      "Ġjay": 4193,
      "osis": 4194,
      "ucks": 4195,
      "Ġflu": 4196,
      "Ġconclusion": 4197,
      "Ġelectrical": 4198,
      "Ġhappen": 4199,
      "Ġclosed": 4200,
      "Ġmanufacturing": 4201,
      "Ġfuel": 4202,
      "Ġriv": 4203,
      "Ġwifi": 4204,
      "omb": 4205,
      "Ġlett": 4206,
      "Ġoral": 4207,
      "encing": 4208,
      "Ġpersp": 4209,
      "Ġapproved": 4210,
      "Ġarray": 4211,
      "Ġbanks": 4212,
      "Ġtickets": 4213,
      "cer": 4214,
      "Ġlyn": 4215,
      "Ġkim": 4216,
      "Ġusage": 4217,
      "Ġentry": 4218,
      "Ġcollec": 4219,
      "Ġsample": 4220,
      "Ġcities": 4221,
      "Ġfaster": 4222,
      "Ġrise": 4223,
      "ructure": 4224,
      "Ġflexible": 4225,
      "Ġpussy": 4226,
      "Ġpel": 4227,
      "Ġdanger": 4228,
      "Ġmist": 4229,
      "Ġthr": 4230,
      "Ġattend": 4231,
      "Ġfilters": 4232,
      "Ġtheory": 4233,
      "Ġreput": 4234,
      "Ġsky": 4235,
      "Ġwednesday": 4236,
      "Ġssl": 4237,
      "Ġsunday": 4238,
      "ci": 4239,
      "Ġmit": 4240,
      "Ġbott": 4241,
      "Ġliqu": 4242,
      "Ġcoord": 4243,
      "Ġnamed": 4244,
      "Ġseam": 4245,
      "Ġelim": 4246,
      "Ġhybrid": 4247,
      "Ġfree": 4248,
      "icient": 4249,
      "essions": 4250,
      "Ġmoon": 4251,
      "Ġmanaging": 4252,
      "apping": 4253,
      "Ġleaders": 4254,
      "umption": 4255,
      "Ġcalls": 4256,
      "Ġgolden": 4257,
      "Ġslee": 4258,
      "Ġpreferences": 4259,
      "Ġwilliam": 4260,
      "Ġcabin": 4261,
      "Ġworldwide": 4262,
      "och": 4263,
      "Ġbid": 4264,
      "Ġtub": 4265,
      "Ġbusd": 4266,
      "Ġmonthly": 4267,
      "Ġmemor": 4268,
      "Ġlifest": 4269,
      "ng": 4270,
      "Ġpast": 4271,
      "Ġbod": 4272,
      "Ġfra": 4273,
      "Ġprofessor": 4274,
      "Ġauthors": 4275,
      "Ġfacility": 4276,
      "Ġfocused": 4277,
      "Ġnavigate": 4278,
      "Ġartists": 4279,
      "Ġgeorge": 4280,
      "Ġwonderful": 4281,
      "Ġtuesday": 4282,
      "Ġtaxes": 4283,
      "Ġstruct": 4284,
      "Ġpacific": 4285,
      "Ġfulf": 4286,
      "Ġlord": 4287,
      "Ġkr": 4288,
      "Ġsever": 4289,
      "ively": 4290,
      "Ġthurs": 4291,
      "Ġbrew": 4292,
      "Ġindustries": 4293,
      "Ġsitu": 4294,
      "Ġintegrated": 4295,
      "Ġlayer": 4296,
      "Ġrelationships": 4297,
      "Ġvictor": 4298,
      "Ġjenn": 4299,
      "Ġexpenses": 4300,
      "Ġgrey": 4301,
      "Ġhydro": 4302,
      "Ġjewelry": 4303,
      "esis": 4304,
      "acle": 4305,
      "Ġproof": 4306,
      "Ġenco": 4307,
      "Ġscot": 4308,
      "Ġpear": 4309,
      "ulty": 4310,
      "Ġjoint": 4311,
      "Ġsurf": 4312,
      "Ġiii": 4313,
      "Ġbasketball": 4314,
      "Ġancient": 4315,
      "iff": 4316,
      "mes": 4317,
      "umber": 4318,
      "owing": 4319,
      "Ġperman": 4320,
      "Ġremains": 4321,
      "Ġwinning": 4322,
      "Ġinformed": 4323,
      "Ġconvenient": 4324,
      "iny": 4325,
      "Ġfour": 4326,
      "Ġtel": 4327,
      "using": 4328,
      "ocurren": 4329,
      "oga": 4330,
      "Ġtruth": 4331,
      "Ġusername": 4332,
      "Ġrevenue": 4333,
      "Ġsummary": 4334,
      "Ġrestaurant": 4335,
      "iac": 4336,
      "wich": 4337,
      "Ġsom": 4338,
      "rome": 4339,
      "Ġevol": 4340,
      "Ġjoy": 4341,
      "Ġclaims": 4342,
      "Ġtransportation": 4343,
      "Ġpatterns": 4344,
      "gal": 4345,
      "Ġadh": 4346,
      "Ġthous": 4347,
      "Ġcarefully": 4348,
      "Ġoutput": 4349,
      "Ġdrug": 4350,
      "Ġvacanc": 4351,
      "Ġcorner": 4352,
      "wall": 4353,
      "ria": 4354,
      "apore": 4355,
      "Ġcompati": 4356,
      "Ġsympt": 4357,
      "Ġdefined": 4358,
      "ographic": 4359,
      "Ġcryptocurren": 4360,
      "Ġinnovative": 4361,
      "icks": 4362,
      "Ġschem": 4363,
      "Ġhook": 4364,
      "Ġjustice": 4365,
      "Ġthousands": 4366,
      "ius": 4367,
      "stone": 4368,
      "raft": 4369,
      "Ġcontext": 4370,
      "Ġforums": 4371,
      "aled": 4372,
      "Ġdram": 4373,
      "Ġmos": 4374,
      "stand": 4375,
      "lows": 4376,
      "Ġtigh": 4377,
      "Ġartif": 4378,
      "Ġdecre": 4379,
      "orney": 4380,
      "Ġthursday": 4381,
      "pg": 4382,
      "vac": 4383,
      "Ġire": 4384,
      "eters": 4385,
      "ayer": 4386,
      "rative": 4387,
      "Ġscott": 4388,
      "Ġhero": 4389,
      "otic": 4390,
      "rier": 4391,
      "rive": 4392,
      "Ġshower": 4393,
      "Ġrom": 4394,
      "Ġboys": 4395,
      "Ġarrest": 4396,
      "Ġsolo": 4397,
      "Ġtoys": 4398,
      "Ġtheme": 4399,
      "laim": 4400,
      "nel": 4401,
      "erce": 4402,
      "error": 4403,
      "edy": 4404,
      "itz": 4405,
      "Ġshad": 4406,
      "Ġanth": 4407,
      "berg": 4408,
      "Ġassemb": 4409,
      "Ġattorney": 4410,
      "Ġinvestors": 4411,
      "Ġspanish": 4412,
      "Ġlose": 4413,
      "Ġresol": 4414,
      "Ġalumin": 4415,
      "Ġorient": 4416,
      "Ġagent": 4417,
      "Ġpromote": 4418,
      "Ġraised": 4419,
      "Ġprepared": 4420,
      "Ġloading": 4421,
      "Ġseparate": 4422,
      "Ġtestim": 4423,
      "hen": 4424,
      "Ġschedul": 4425,
      "Ġrestaurants": 4426,
      "Ġlady": 4427,
      "Ġdip": 4428,
      "Ġcompl": 4429,
      "Ġzone": 4430,
      "Ġchoices": 4431,
      "Ġsignal": 4432,
      "Ġpractical": 4433,
      "goti": 4434,
      "Ġexpression": 4435,
      "Ġwaiting": 4436,
      "Ġbirthday": 4437,
      "Ġannounced": 4438,
      "Ġgutter": 4439,
      "Ġcs": 4440,
      "Ġchocol": 4441,
      "Ġblind": 4442,
      "Ġuk": 4443,
      "Ġfreed": 4444,
      "Ġsingapore": 4445,
      "Ġawesome": 4446,
      "going": 4447,
      "Ġrapid": 4448,
      "fri": 4449,
      "Ġdistance": 4450,
      "Ġleads": 4451,
      "Ġpackaging": 4452,
      "Ġlicens": 4453,
      "Ġacademy": 4454,
      "wr": 4455,
      "inar": 4456,
      "Ġhunt": 4457,
      "asy": 4458,
      "unte": 4459,
      "Ġchees": 4460,
      "Ġjon": 4461,
      "Ġalph": 4462,
      "Ġdesi": 4463,
      "amples": 4464,
      "Ġmovies": 4465,
      "Ġsugar": 4466,
      "Ġevaluation": 4467,
      "Ġarchitecture": 4468,
      "Ġegyp": 4469,
      "lers": 4470,
      "Ġchronic": 4471,
      "Ġraw": 4472,
      "Ġinterface": 4473,
      "Ġagg": 4474,
      "Ġbarb": 4475,
      "Ġdirectory": 4476,
      "Ġlesbian": 4477,
      "ql": 4478,
      "Ġfilled": 4479,
      "Ġhyp": 4480,
      "aced": 4481,
      "Ġdates": 4482,
      "Ġsupporting": 4483,
      "Ġequity": 4484,
      "ommod": 4485,
      "Ġhousing": 4486,
      "Ġeffectively": 4487,
      "Ġborder": 4488,
      "Ġhen": 4489,
      "Ġstain": 4490,
      "Ġindo": 4491,
      "Ġscholar": 4492,
      "Ġnetworks": 4493,
      "Ġbetting": 4494,
      "Ġhistorical": 4495,
      "Ġtank": 4496,
      "Ġlis": 4497,
      "Ġhood": 4498,
      "umes": 4499,
      "Ġleader": 4500,
      "Ġissued": 4501,
      "Ġhighlight": 4502,
      "Ġcommitment": 4503,
      "Ġstorm": 4504,
      "Ġoak": 4505,
      "Ġride": 4506,
      "Ġexamples": 4507,
      "aked": 4508,
      "Ġaccommod": 4509,
      "Ġserved": 4510,
      "Ġindic": 4511,
      "Ġjoined": 4512,
      "Ġstanding": 4513,
      "Ġcycle": 4514,
      "erate": 4515,
      "Ġpip": 4516,
      "ala": 4517,
      "Ġmouth": 4518,
      "Ġinvent": 4519,
      "Ġcharles": 4520,
      "Ġhandling": 4521,
      "Ġpeter": 4522,
      "yo": 4523,
      "Ġsac": 4524,
      "Ġsoph": 4525,
      "Ġnurs": 4526,
      "Ġchord": 4527,
      "Ġspent": 4528,
      "Ġexpos": 4529,
      "Ġmessages": 4530,
      "Ġcompetitive": 4531,
      "flow": 4532,
      "Ġreply": 4533,
      "Ġbrit": 4534,
      "Ġdiscount": 4535,
      "Ġinstitution": 4536,
      "Ġconfigur": 4537,
      "Ġdelete": 4538,
      "Ġmentioned": 4539,
      "Ġtoilet": 4540,
      "cel": 4541,
      "fr": 4542,
      "Ġbell": 4543,
      "Ġaqu": 4544,
      "Ġcontemp": 4545,
      "ustr": 4546,
      "Ġtherm": 4547,
      "Ġinfrast": 4548,
      "ipped": 4549,
      "resp": 4550,
      "Ġeleg": 4551,
      "Ġstatements": 4552,
      "Ġnutrition": 4553,
      "Ġitalian": 4554,
      "fs": 4555,
      "Ġcp": 4556,
      "ador": 4557,
      "Ġrisks": 4558,
      "Ġcrossed": 4559,
      "Ġvolunte": 4560,
      "Ġcd": 4561,
      "rees": 4562,
      "Ġpenn": 4563,
      "Ġreproduc": 4564,
      "Ġlisting": 4565,
      "Ġtoy": 4566,
      "Ġflower": 4567,
      "Ġfailure": 4568,
      "Ġsad": 4569,
      "itage": 4570,
      "Ġlow": 4571,
      "Ġwet": 4572,
      "Ġanonym": 4573,
      "anny": 4574,
      "Ġcontinues": 4575,
      "Ġhelped": 4576,
      "Ġappointment": 4577,
      "Ġcrystal": 4578,
      "Ġbridge": 4579,
      "Ġdelhi": 4580,
      "Ġcrush": 4581,
      "Ġlistening": 4582,
      "Ġfamous": 4583,
      "Ġworry": 4584,
      "Ġarchive": 4585,
      "Ġdogs": 4586,
      "Ġcancel": 4587,
      "Ġphotography": 4588,
      "Ġresidents": 4589,
      "press": 4590,
      "Ġgem": 4591,
      "Ġleaves": 4592,
      "Ġscene": 4593,
      "Ġinteractive": 4594,
      "Ġcars": 4595,
      "Ġxxxx": 4596,
      "Ġprepare": 4597,
      "Ġdiverse": 4598,
      "Ġconduct": 4599,
      "Ġlifestyle": 4600,
      "bet": 4601,
      "Ġba": 4602,
      "Ġcla": 4603,
      "Ġbranch": 4604,
      "Ġvaluable": 4605,
      "Ġexciting": 4606,
      "Ġcheckout": 4607,
      "Ġcouns": 4608,
      "Ġsubscription": 4609,
      "Ġaspects": 4610,
      "Ġultimate": 4611,
      "Ġcircumst": 4612,
      "point": 4613,
      "uti": 4614,
      "inos": 4615,
      "Ġcontacts": 4616,
      "Ġalign": 4617,
      "Ġaccessible": 4618,
      "Ġskip": 4619,
      "Ġdisclos": 4620,
      "Ġupper": 4621,
      "Ġreporting": 4622,
      "Ġteacher": 4623,
      "Ġparticipants": 4624,
      "Ġowned": 4625,
      "Ġrussia": 4626,
      "bp": 4627,
      "Ġbond": 4628,
      "iling": 4629,
      "Ġkill": 4630,
      "Ġorange": 4631,
      "Ġfox": 4632,
      "Ġimproving": 4633,
      "Ġstructures": 4634,
      "Ġmartin": 4635,
      "Ġfestival": 4636,
      "Ġnom": 4637,
      "aki": 4638,
      "Ġrecyc": 4639,
      "Ġconfidence": 4640,
      "Ġprime": 4641,
      "Ġtalking": 4642,
      "Ġinspired": 4643,
      "Ġguidelines": 4644,
      "Ġresistance": 4645,
      "Ġstructural": 4646,
      "ev": 4647,
      "ners": 4648,
      "ray": 4649,
      "onia": 4650,
      "Ġpy": 4651,
      "Ġunf": 4652,
      "Ġcompens": 4653,
      "Ġidentity": 4654,
      "Ġiph": 4655,
      "vm": 4656,
      "zen": 4657,
      "Ġpier": 4658,
      "Ġasc": 4659,
      "Ġspaces": 4660,
      "Ġrot": 4661,
      "Ġwhats": 4662,
      "beat": 4663,
      "Ġcurrency": 4664,
      "Ġdriven": 4665,
      "Ġfactor": 4666,
      "Ġvillage": 4667,
      "Ġdesktop": 4668,
      "rus": 4669,
      "Ġhart": 4670,
      "Ġget": 4671,
      "Ġniger": 4672,
      "Ġroot": 4673,
      "Ġinterior": 4674,
      "Ġtransactions": 4675,
      "Ġtechnique": 4676,
      "Ġstyles": 4677,
      "Ġcollected": 4678,
      "win": 4679,
      "Ġcatch": 4680,
      "resh": 4681,
      "Ġtube": 4682,
      "Ġrh": 4683,
      "Ġserving": 4684,
      "Ġremark": 4685,
      "Ġbuildings": 4686,
      "Ġbutter": 4687,
      "mond": 4688,
      "Ġjones": 4689,
      "Ġsignature": 4690,
      "Ġeconomics": 4691,
      "Ġfantastic": 4692,
      "Ġohio": 4693,
      "uits": 4694,
      "Ġtea": 4695,
      "Ġphpbb": 4696,
      "Ġtaylor": 4697,
      "gi": 4698,
      "yt": 4699,
      "ream": 4700,
      "Ġgun": 4701,
      "ested": 4702,
      "Ġcommand": 4703,
      "Ġminute": 4704,
      "Ġextensive": 4705,
      "cing": 4706,
      "Ġcord": 4707,
      "Ġbarn": 4708,
      "Ġhack": 4709,
      "odes": 4710,
      "Ġsigned": 4711,
      "Ġvalent": 4712,
      "Ġreceiving": 4713,
      "Ġlighting": 4714,
      "Ġcommitted": 4715,
      "Ġcampus": 4716,
      "Ġprocedures": 4717,
      "iy": 4718,
      "atar": 4719,
      "Ġts": 4720,
      "Ġadults": 4721,
      "Ġproductivity": 4722,
      "Ġguests": 4723,
      "Ġlearned": 4724,
      "Ġportal": 4725,
      "ception": 4726,
      "Ġsciences": 4727,
      "Ġhong": 4728,
      "Ġcovers": 4729,
      "agers": 4730,
      "Ġrati": 4731,
      "Ġexcess": 4732,
      "uction": 4733,
      "Ġsuit": 4734,
      "azz": 4735,
      "Ġpurchased": 4736,
      "Ġtroub": 4737,
      "Ġkinds": 4738,
      "Ġub": 4739,
      "Ġrear": 4740,
      "eling": 4741,
      "Ġchart": 4742,
      "Ġminor": 4743,
      "Ġcanad": 4744,
      "Ġmaxim": 4745,
      "ran": 4746,
      "vide": 4747,
      "erves": 4748,
      "Ġcum": 4749,
      "Ġbund": 4750,
      "Ġgate": 4751,
      "Ġrin": 4752,
      "Ġnegoti": 4753,
      "Ġcrack": 4754,
      "Ġcriter": 4755,
      "Ġconnections": 4756,
      "Ġcollaboration": 4757,
      "Ġlashes": 4758,
      "Ġsymptoms": 4759,
      "Ġturn": 4760,
      "Ġenabled": 4761,
      "Ġappli": 4762,
      "unds": 4763,
      "Ġthrow": 4764,
      "Ġmodified": 4765,
      "Ġfacilit": 4766,
      "Ġnorthern": 4767,
      "Ġdollar": 4768,
      "Ġvulner": 4769,
      "hs": 4770,
      "hus": 4771,
      "no": 4772,
      "Ġpun": 4773,
      "usc": 4774,
      "Ġvel": 4775,
      "chester": 4776,
      "Ġbrings": 4777,
      "Ġcaps": 4778,
      "Ġsteve": 4779,
      "Ġheritage": 4780,
      "Ġcertificate": 4781,
      "Ġdiversity": 4782,
      "Ġhoriz": 4783,
      "Ġireland": 4784,
      "vas": 4785,
      "Ġdol": 4786,
      "Ġtrib": 4787,
      "Ġtaste": 4788,
      "tered": 4789,
      "Ġtransp": 4790,
      "Ġdomino": 4791,
      "Ġliability": 4792,
      "Ġencourage": 4793,
      "Ġseamless": 4794,
      "bury": 4795,
      "fc": 4796,
      "Ġcong": 4797,
      "ocks": 4798,
      "Ġthread": 4799,
      "Ġlegis": 4800,
      "weight": 4801,
      "Ġsounds": 4802,
      "Ġexhibition": 4803,
      "Ġabstract": 4804,
      "Ġinfrastructure": 4805,
      "Ġboat": 4806,
      "Ġdrink": 4807,
      "Ġintegration": 4808,
      "Ġvehicles": 4809,
      "Ġregulatory": 4810,
      "Ġintelligence": 4811,
      "ih": 4812,
      "kes": 4813,
      "Ġsti": 4814,
      "Ġcodes": 4815,
      "elly": 4816,
      "unning": 4817,
      "Ġkong": 4818,
      "Ġobjects": 4819,
      "Ġseeking": 4820,
      "Ġdining": 4821,
      "Ġtall": 4822,
      "Ġlights": 4823,
      "Ġmoist": 4824,
      "awn": 4825,
      "Ġtreas": 4826,
      "Ġensures": 4827,
      "Ġboxes": 4828,
      "Ġsavings": 4829,
      "Ġjudge": 4830,
      "Ġelementary": 4831,
      "rance": 4832,
      "vision": 4833,
      "Ġvend": 4834,
      "Ġrac": 4835,
      "Ġjim": 4836,
      "uma": 4837,
      "Ġqueen": 4838,
      "airs": 4839,
      "Ġgear": 4840,
      "Ġprocedure": 4841,
      "Ġlandscape": 4842,
      "net": 4843,
      "Ġord": 4844,
      "arks": 4845,
      "Ġbah": 4846,
      "amental": 4847,
      "endo": 4848,
      "Ġescape": 4849,
      "Ġprinciples": 4850,
      "Ġnegative": 4851,
      "Ġcultiv": 4852,
      "has": 4853,
      "Ġaer": 4854,
      "Ġapplicant": 4855,
      "Ġitaly": 4856,
      "Ġatmosphere": 4857,
      "Ġforgot": 4858,
      "Ġcad": 4859,
      "Ġadop": 4860,
      "orship": 4861,
      "Ġsupports": 4862,
      "Ġcharl": 4863,
      "Ġperfectly": 4864,
      "Ġembed": 4865,
      "Ġwireless": 4866,
      "Ġinches": 4867,
      "Ġcrisis": 4868,
      "Ġwithdra": 4869,
      "bour": 4870,
      "Ġackn": 4871,
      "Ġbrush": 4872,
      "Ġexperiment": 4873,
      "Ġresidential": 4874,
      "Ġiphone": 4875,
      "Ġdub": 4876,
      "Ġtables": 4877,
      "Ġgender": 4878,
      "Ġsto": 4879,
      "Ġprovision": 4880,
      "Ġdevelopers": 4881,
      "Ġpassport": 4882,
      "Ġprotocol": 4883,
      "Ġdiseases": 4884,
      "Ġrankings": 4885,
      "Ġlaboratory": 4886,
      "Ġpandemic": 4887,
      "Ġlists": 4888,
      "rics": 4889,
      "Ġforget": 4890,
      "Ġappears": 4891,
      "Ġmassage": 4892,
      "iliar": 4893,
      "Ġopinion": 4894,
      "Ġcitizens": 4895,
      "Ġom": 4896,
      "lying": 4897,
      "Ġprints": 4898,
      "intage": 4899,
      "Ġnotic": 4900,
      "Ġconcent": 4901,
      "Ġcrimin": 4902,
      "Ġcutting": 4903,
      "Ġbbw": 4904,
      "Ġshirts": 4905,
      "Ġvirginia": 4906,
      "bc": 4907,
      "Ġcable": 4908,
      "Ġhire": 4909,
      "Ġnic": 4910,
      "riage": 4911,
      "Ġkiss": 4912,
      "tically": 4913,
      "Ġasset": 4914,
      "Ġpublication": 4915,
      "Ġweekly": 4916,
      "ascript": 4917,
      "Ġengagement": 4918,
      "Ġdecide": 4919,
      "Ġsouthern": 4920,
      "Ġexplain": 4921,
      "Ġdifferences": 4922,
      "holders": 4923,
      "Ġdaughter": 4924,
      "ht": 4925,
      "nic": 4926,
      "Ġign": 4927,
      "Ġcath": 4928,
      "Ġhome": 4929,
      "uses": 4930,
      "Ġquart": 4931,
      "Ġfaculty": 4932,
      "Ġforecast": 4933,
      "Ġfunctionality": 4934,
      "Ġextreme": 4935,
      "Ġprotein": 4936,
      "Ġtasks": 4937,
      "iant": 4938,
      "part": 4939,
      "rey": 4940,
      "Ġcreation": 4941,
      "Ġlouis": 4942,
      "Ġinstitutions": 4943,
      "Ġmechanical": 4944,
      "Ġwarning": 4945,
      "Ġbrother": 4946,
      "Ġsister": 4947,
      "Ġdispos": 4948,
      "Ġequal": 4949,
      "Ġrecorded": 4950,
      "Ġacquis": 4951,
      "Ġathle": 4952,
      "Ġaz": 4953,
      "Ġwo": 4954,
      "Ġjeff": 4955,
      "Ġwitness": 4956,
      "Ġcriteria": 4957,
      "pal": 4958,
      "Ġink": 4959,
      "Ġjer": 4960,
      "Ġorgas": 4961,
      "Ġmodule": 4962,
      "Ġperformed": 4963,
      "Ġbuilder": 4964,
      "Ġsalt": 4965,
      "Ġspeaking": 4966,
      "Ġpremier": 4967,
      "Ġremoved": 4968,
      "Ġdimensions": 4969,
      "Ġattempt": 4970,
      "Ġwarehouse": 4971,
      "Ġclicking": 4972,
      "berry": 4973,
      "Ġconsumption": 4974,
      "Ġrequests": 4975,
      "Ġprocessed": 4976,
      "titude": 4977,
      "Ġcombined": 4978,
      "Ġrentals": 4979,
      "Ġbiggest": 4980,
      "ko": 4981,
      "Ġhow": 4982,
      "ectives": 4983,
      "Ġstated": 4984,
      "ensity": 4985,
      "Ġscar": 4986,
      "Ġadvoc": 4987,
      "Ġplanet": 4988,
      "Ġdrivers": 4989,
      "Ġreasonable": 4990,
      "Ġkeywords": 4991,
      "Ġchocolate": 4992,
      "worth": 4993,
      "ece": 4994,
      "Ġos": 4995,
      "ifying": 4996,
      "ores": 4997,
      "Ġphase": 4998,
      "Ġbrook": 4999,
      "Ġrevolution": 5000,
      "Ġfoods": 5001,
      "Ġadapt": 5002,
      "Ġsharp": 5003,
      "Ġtoggle": 5004,
      "come": 5005,
      "Ġga": 5006,
      "ulate": 5007,
      "ira": 5008,
      "Ġcontents": 5009,
      "Ġthro": 5010,
      "Ġzip": 5011,
      "Ġupcoming": 5012,
      "Ġprogramme": 5013,
      "Ġelection": 5014,
      "Ġelectron": 5015,
      "Ġdestro": 5016,
      "Ġsongs": 5017,
      "Ġawareness": 5018,
      "Ġalbum": 5019,
      "ption": 5020,
      "vi": 5021,
      "Ġpak": 5022,
      "rote": 5023,
      "unction": 5024,
      "Ġmoved": 5025,
      "Ġrelation": 5026,
      "Ġforces": 5027,
      "Ġholly": 5028,
      "Ġportug": 5029,
      "Ġregularly": 5030,
      "Ġprinted": 5031,
      "Ġanalyze": 5032,
      "Ġdoubt": 5033,
      "Ġfourth": 5034,
      "cious": 5035,
      "mc": 5036,
      "nat": 5037,
      "rs": 5038,
      "orized": 5039,
      "Ġshut": 5040,
      "Ġanch": 5041,
      "Ġalt": 5042,
      "Ġbeads": 5043,
      "Ġspecifications": 5044,
      "Ġdetermined": 5045,
      "west": 5046,
      "Ġcel": 5047,
      "Ġduty": 5048,
      "Ġeco": 5049,
      "cher": 5050,
      "Ġplace": 5051,
      "Ġweak": 5052,
      "anna": 5053,
      "Ġrefresh": 5054,
      "outs": 5055,
      "Ġvacc": 5056,
      "Ġanswers": 5057,
      "Ġneighbor": 5058,
      "gl": 5059,
      "life": 5060,
      "inations": 5061,
      "Ġhind": 5062,
      "Ġnich": 5063,
      "Ġproceed": 5064,
      "Ġmetab": 5065,
      "Ġmilf": 5066,
      "Ġreduced": 5067,
      "Ġcircumstances": 5068,
      "iat": 5069,
      "Ġsel": 5070,
      "rete": 5071,
      "Ġgram": 5072,
      "Ġpresc": 5073,
      "Ġrecre": 5074,
      "Ġflight": 5075,
      "Ġknowing": 5076,
      "Ġmajority": 5077,
      "Ġjoseph": 5078,
      "Ġfreedom": 5079,
      "Ġvoc": 5080,
      "Ġraces": 5081,
      "Ġspin": 5082,
      "Ġleaving": 5083,
      "Ġalarm": 5084,
      "Ġpersist": 5085,
      "Ġdamages": 5086,
      "Ġdealer": 5087,
      "Ġbroken": 5088,
      "Ġdash": 5089,
      "Ġford": 5090,
      "Ġdiss": 5091,
      "Ġserves": 5092,
      "Ġvacation": 5093,
      "Ġstarts": 5094,
      "Ġenterprise": 5095,
      "Ġsustainability": 5096,
      "Ġdivid": 5097,
      "Ġgor": 5098,
      "Ġvintage": 5099,
      "Ġagencies": 5100,
      "Ġsurpr": 5101,
      "Ġcapture": 5102,
      "Ġerrors": 5103,
      "Ġmobility": 5104,
      "Ġstrategic": 5105,
      "Ġurban": 5106,
      "Ġqualified": 5107,
      "paper": 5108,
      "edia": 5109,
      "Ġbin": 5110,
      "Ġty": 5111,
      "Ġtac": 5112,
      "Ġgent": 5113,
      "idents": 5114,
      "Ġcolumb": 5115,
      "Ġmanaged": 5116,
      "Ġembr": 5117,
      "Ġshoul": 5118,
      "Ġspeaker": 5119,
      "Ġexchang": 5120,
      "Ġmissing": 5121,
      "Ġroll": 5122,
      "Ġeligible": 5123,
      "Ġdust": 5124,
      "Ġwik": 5125,
      "Ġstrict": 5126,
      "Ġrough": 5127,
      "Ġfeat": 5128,
      "rick": 5129,
      "Ġextent": 5130,
      "Ġpublications": 5131,
      "job": 5132,
      "Ġruns": 5133,
      "Ġemotional": 5134,
      "Ġinstrument": 5135,
      "Ġpresentation": 5136,
      "town": 5137,
      "Ġsent": 5138,
      "Ġdick": 5139,
      "Ġbh": 5140,
      "Ġlunch": 5141,
      "Ġhip": 5142,
      "idays": 5143,
      "Ġjac": 5144,
      "Ġparalle": 5145,
      "Ġplays": 5146,
      "Ġspecialist": 5147,
      "Ġpositions": 5148,
      "Ġpainting": 5149,
      "Ġdraft": 5150,
      "Ġcamer": 5151,
      "Ġremoval": 5152,
      "stein": 5153,
      "don": 5154,
      "pc": 5155,
      "Ġbann": 5156,
      "Ġbars": 5157,
      "Ġax": 5158,
      "Ġreward": 5159,
      "enty": 5160,
      "Ġconsequ": 5161,
      "Ġgrass": 5162,
      "Ġnatur": 5163,
      "Ġcalling": 5164,
      "Ġbanking": 5165,
      "Ġsheets": 5166,
      "racts": 5167,
      "Ġhosting": 5168,
      "Ġdad": 5169,
      "Ġmah": 5170,
      "Ġbachel": 5171,
      "Ġgib": 5172,
      "Ġgather": 5173,
      "Ġvn": 5174,
      "Ġenthus": 5175,
      "Ġconflic": 5176,
      "Ġperforming": 5177,
      "Ġsheep": 5178,
      "Ġfalls": 5179,
      "Ġcontribute": 5180,
      "Ġaccuracy": 5181,
      "Ġinquiry": 5182,
      "Ġliquid": 5183,
      "omy": 5184,
      "Ġjam": 5185,
      "Ġyoga": 5186,
      "Ġlegacy": 5187,
      "ront": 5188,
      "Ġpurchases": 5189,
      "Ġpurchasing": 5190,
      "Ġimprovement": 5191,
      "Ġreducing": 5192,
      "Ġhouses": 5193,
      "han": 5194,
      "rig": 5195,
      "vo": 5196,
      "Ġpets": 5197,
      "Ġdun": 5198,
      "Ġmask": 5199,
      "Ġfar": 5200,
      "Ġscope": 5201,
      "Ġflag": 5202,
      "Ġintended": 5203,
      "Ġshipped": 5204,
      "cepts": 5205,
      "Ġcharacteristics": 5206,
      "Ġmaintaining": 5207,
      "Ġprecision": 5208,
      "Ġgeorgia": 5209,
      "Ġsas": 5210,
      "Ġbets": 5211,
      "Ġenables": 5212,
      "Ġsmile": 5213,
      "Ġcertification": 5214,
      "Ġinjuries": 5215,
      "Ġsessions": 5216,
      "Ġpix": 5217,
      "Ġdot": 5218,
      "Ġstunning": 5219,
      "uting": 5220,
      "osen": 5221,
      "itim": 5222,
      "Ġconstruc": 5223,
      "comes": 5224,
      "Ġguaranteed": 5225,
      "Ġcub": 5226,
      "Ġmile": 5227,
      "star": 5228,
      "Ġkid": 5229,
      "Ġregulation": 5230,
      "Ġbooking": 5231,
      "Ġsaving": 5232,
      "Ġhoney": 5233,
      "Ġdresses": 5234,
      "Ġsarah": 5235,
      "aid": 5236,
      "fg": 5237,
      "kin": 5238,
      "kins": 5239,
      "Ġug": 5240,
      "Ġdual": 5241,
      "Ġdump": 5242,
      "Ġproc": 5243,
      "Ġconv": 5244,
      "udi": 5245,
      "Ġplenty": 5246,
      "Ġalco": 5247,
      "Ġorch": 5248,
      "Ġbelong": 5249,
      "Ġholds": 5250,
      "Ġjosh": 5251,
      "Ġevery": 5252,
      "md": 5253,
      "Ġms": 5254,
      "Ġwave": 5255,
      "Ġdeck": 5256,
      "Ġminister": 5257,
      "auce": 5258,
      "Ġeliz": 5259,
      "Ġtrusted": 5260,
      "Ġjavascript": 5261,
      "Ġlaser": 5262,
      "fast": 5263,
      "Ġsed": 5264,
      "Ġpit": 5265,
      "Ġrewards": 5266,
      "Ġlind": 5267,
      "oto": 5268,
      "Ġlooked": 5269,
      "Ġevolution": 5270,
      "Ġrevers": 5271,
      "Ġextended": 5272,
      "Ġstands": 5273,
      "Ġrecording": 5274,
      "Ġhousehold": 5275,
      "Ġbird": 5276,
      "yalgia": 5277,
      "Ġwebinar": 5278,
      "Ġattached": 5279,
      "Ġbroker": 5280,
      "Ġpleasure": 5281,
      "Ġdaniel": 5282,
      "Ġline": 5283,
      "Ġvital": 5284,
      "rich": 5285,
      "Ġtransaction": 5286,
      "Ġnoise": 5287,
      "Ġviewing": 5288,
      "cont": 5289,
      "Ġtimber": 5290,
      "Ġbirds": 5291,
      "romyalgia": 5292,
      "Ġestimate": 5293,
      "Ġsatisfaction": 5294,
      "Ġfibromyalgia": 5295,
      "charge": 5296,
      "Ġsurgery": 5297,
      "Ġcontemporary": 5298,
      "bro": 5299,
      "inated": 5300,
      "allow": 5301,
      "Ġment": 5302,
      "Ġmang": 5303,
      "Ġhung": 5304,
      "Ġwrote": 5305,
      "Ġrat": 5306,
      "aka": 5307,
      "Ġresume": 5308,
      "Ġbrad": 5309,
      "Ġexpensive": 5310,
      "Ġevening": 5311,
      "Ġjoe": 5312,
      "Ġguidance": 5313,
      "Ġconversation": 5314,
      "Ġspiritual": 5315,
      "Ġexceptional": 5316,
      "Ġreligious": 5317,
      "Ġconsumers": 5318,
      "Ġconfiguration": 5319,
      "aa": 5320,
      "bit": 5321,
      "iors": 5322,
      "arian": 5323,
      "Ġrated": 5324,
      "Ġplain": 5325,
      "Ġdeploy": 5326,
      "Ġswed": 5327,
      "Ġextension": 5328,
      "Ġairport": 5329,
      "Ġversati": 5330,
      "Ġfavour": 5331,
      "Ġplugin": 5332,
      "Ġretire": 5333,
      "friend": 5334,
      "ingu": 5335,
      "Ġble": 5336,
      "Ġllc": 5337,
      "Ġwrest": 5338,
      "Ġinterven": 5339,
      "Ġparis": 5340,
      "Ġtransition": 5341,
      "Ġisl": 5342,
      "Ġshowc": 5343,
      "Ġcanadian": 5344,
      "Ġnam": 5345,
      "Ġabuse": 5346,
      "Ġfamiliar": 5347,
      "Ġdiscip": 5348,
      "Ġfundamental": 5349,
      "Ġconvenience": 5350,
      "Ġlesson": 5351,
      "Ġtight": 5352,
      "xy": 5353,
      "ince": 5354,
      "Ġdepart": 5355,
      "Ġdamaged": 5356,
      "Ġescort": 5357,
      "Ġviolence": 5358,
      "Ġfrancisco": 5359,
      "Ġvinyl": 5360,
      "Ġartificial": 5361,
      "war": 5362,
      "Ġdetection": 5363,
      "Ġempower": 5364,
      "exp": 5365,
      "Ġclock": 5366,
      "Ġgenerations": 5367,
      "Ġapartment": 5368,
      "Ġreplies": 5369,
      "Ġdebt": 5370,
      "Ġabsor": 5371,
      "reciation": 5372,
      "Ġmillions": 5373,
      "Ġcontainer": 5374,
      "Ġfur": 5375,
      "Ġease": 5376,
      "ares": 5377,
      "ansas": 5378,
      "Ġexport": 5379,
      "Ġfunny": 5380,
      "Ġobit": 5381,
      "Ġinvolves": 5382,
      "Ġsensitive": 5383,
      "Ġgraphics": 5384,
      "Ġlatin": 5385,
      "Ġresistant": 5386,
      "Ġscientific": 5387,
      "Ġcompensation": 5388,
      "cription": 5389,
      "hl": 5390,
      "pace": 5391,
      "vc": 5392,
      "Ġbust": 5393,
      "Ġtang": 5394,
      "isms": 5395,
      "abe": 5396,
      "Ġtiss": 5397,
      "Ġtrig": 5398,
      "Ġartis": 5399,
      "ibly": 5400,
      "Ġdelight": 5401,
      "Ġintroduced": 5402,
      "Ġtransformation": 5403,
      "Ġcarpet": 5404,
      "Ġdecl": 5405,
      "Ġpersonalized": 5406,
      "Ġgenerate": 5407,
      "Ġjohnson": 5408,
      "Ġtested": 5409,
      "Ġgel": 5410,
      "Ġdee": 5411,
      "Ġanx": 5412,
      "Ġappare": 5413,
      "Ġreset": 5414,
      "Ġaccum": 5415,
      "Ġfear": 5416,
      "Ġages": 5417,
      "away": 5418,
      "Ġpersonally": 5419,
      "Ġreaders": 5420,
      "Ġcenters": 5421,
      "Ġlaure": 5422,
      "Ġhonest": 5423,
      "Ġpollen": 5424,
      "rell": 5425,
      "Ġchicago": 5426,
      "Ġindoor": 5427,
      "Ġwhatsapp": 5428,
      "vent": 5429,
      "Ġpend": 5430,
      "Ġhay": 5431,
      "look": 5432,
      "Ġprepar": 5433,
      "ectors": 5434,
      "Ġbreast": 5435,
      "Ġxml": 5436,
      "Ġhole": 5437,
      "Ġgenerated": 5438,
      "Ġmarked": 5439,
      "Ġchallenging": 5440,
      "Ġtestimon": 5441,
      "Ġnash": 5442,
      "Ġprosp": 5443,
      "ucking": 5444,
      "Ġshift": 5445,
      "Ġadds": 5446,
      "Ġbrun": 5447,
      "Ġregions": 5448,
      "bridge": 5449,
      "ifications": 5450,
      "Ġobserved": 5451,
      "Ġgraduate": 5452,
      "Ġmortg": 5453,
      "kk": 5454,
      "mf": 5455,
      "rum": 5456,
      "ali": 5457,
      "Ġbug": 5458,
      "Ġkam": 5459,
      "Ġweekend": 5460,
      "Ġmaps": 5461,
      "Ġdistributed": 5462,
      "Ġpregnancy": 5463,
      "Ġpocket": 5464,
      "comm": 5465,
      "ru": 5466,
      "ales": 5467,
      "Ġbass": 5468,
      "ratic": 5469,
      "Ġuna": 5470,
      "izz": 5471,
      "Ġque": 5472,
      "elled": 5473,
      "Ġguys": 5474,
      "Ġsettle": 5475,
      "Ġflush": 5476,
      "Ġvisiting": 5477,
      "Ġextract": 5478,
      "Ġcru": 5479,
      "Ġsuperior": 5480,
      "Ġtops": 5481,
      "Ġexploring": 5482,
      "Ġparticipate": 5483,
      "Ġflexibility": 5484,
      "Ġticket": 5485,
      "Ġultra": 5486,
      "Ġcater": 5487,
      "Ġcute": 5488,
      "Ġrid": 5489,
      "eller": 5490,
      "Ġblend": 5491,
      "Ġblond": 5492,
      "Ġneut": 5493,
      "Ġbuff": 5494,
      "Ġcharging": 5495,
      "Ġrequirement": 5496,
      "Ġpreview": 5497,
      "Ġchemistry": 5498,
      "Ġanonymous": 5499,
      "fish": 5500,
      "Ġmig": 5501,
      "Ġbib": 5502,
      "Ġrush": 5503,
      "Ġsections": 5504,
      "search": 5505,
      "Ġcapabilities": 5506,
      "Ġholidays": 5507,
      "bt": 5508,
      "born": 5509,
      "ders": 5510,
      "gate": 5511,
      "hc": 5512,
      "lay": 5513,
      "ways": 5514,
      "ref": 5515,
      "aland": 5516,
      "roph": 5517,
      "ques": 5518,
      "Ġenforce": 5519,
      "Ġplate": 5520,
      "orders": 5521,
      "Ġrecipe": 5522,
      "Ġparad": 5523,
      "Ġgood": 5524,
      "Ġsecond": 5525,
      "riptions": 5526,
      "Ġvariation": 5527,
      "Ġfinancing": 5528,
      "Ġhappened": 5529,
      "Ġlosses": 5530,
      "Ġcorporation": 5531,
      "Ġwellness": 5532,
      "bow": 5533,
      "hire": 5534,
      "rc": 5535,
      "ero": 5536,
      "Ġpitch": 5537,
      "Ġmerc": 5538,
      "Ġok": 5539,
      "Ġspo": 5540,
      "Ġcomplic": 5541,
      "rence": 5542,
      "Ġgrace": 5543,
      "Ġcooking": 5544,
      "Ġautomated": 5545,
      "Ġporno": 5546,
      "Ġcomputing": 5547,
      "Ġsudden": 5548,
      "bur": 5549,
      "inating": 5550,
      "Ġsne": 5551,
      "Ġarc": 5552,
      "Ġinstant": 5553,
      "Ġemphas": 5554,
      "Ġaddresses": 5555,
      "Ġinvesting": 5556,
      "Ġassistant": 5557,
      "Ġadvantages": 5558,
      "Ġhistoric": 5559,
      "Ġtweet": 5560,
      "Ġratio": 5561,
      "Ġpatch": 5562,
      "Ġcouldn": 5563,
      "Ġkick": 5564,
      "Ġmarried": 5565,
      "Ġsupplement": 5566,
      "Ġsymp": 5567,
      "Ġbreeds": 5568,
      "Ġmatters": 5569,
      "versable": 5570,
      "Ġescorts": 5571,
      "Ġcomparison": 5572,
      "Ġpermanent": 5573,
      "ymp": 5574,
      "Ġwra": 5575,
      "igan": 5576,
      "aya": 5577,
      "ibilities": 5578,
      "Ġgenu": 5579,
      "Ġcontrolled": 5580,
      "Ġinvestments": 5581,
      "Ġflooring": 5582,
      "Ġfactory": 5583,
      "Ġoptimization": 5584,
      "Ġdiscovery": 5585,
      "Ġexpectations": 5586,
      "Ġfantasy": 5587,
      "Ġstainless": 5588,
      "Ġnur": 5589,
      "Ġacry": 5590,
      "Ġadmission": 5591,
      "Ġwealth": 5592,
      "Ġessenti": 5593,
      "Ġwatching": 5594,
      "Ġvictim": 5595,
      "Ġsplit": 5596,
      "Ġinventory": 5597,
      "Ġcriminal": 5598,
      "ao": 5599,
      "mm": 5600,
      "Ġmapping": 5601,
      "Ġauction": 5602,
      "Ġetf": 5603,
      "asp": 5604,
      "Ġreserve": 5605,
      "Ġdisapp": 5606,
      "liers": 5607,
      "ova": 5608,
      "Ġapi": 5609,
      "Ġrecognized": 5610,
      "Ġdynam": 5611,
      "Ġcontinuing": 5612,
      "oa": 5613,
      "Ġsir": 5614,
      "Ġmaur": 5615,
      "elt": 5616,
      "Ġwearing": 5617,
      "Ġparking": 5618,
      "Ġjoists": 5619,
      "Ġdelay": 5620,
      "Ġbelief": 5621,
      "Ġcrime": 5622,
      "Ġfounded": 5623,
      "fall": 5624,
      "zd": 5625,
      "uster": 5626,
      "Ġservers": 5627,
      "Ġexpans": 5628,
      "Ġpaypal": 5629,
      "Ġapproval": 5630,
      "Ġconstra": 5631,
      "Ġtotally": 5632,
      "Ġbowl": 5633,
      "gro": 5634,
      "nam": 5635,
      "oen": 5636,
      "vr": 5637,
      "Ġnations": 5638,
      "omi": 5639,
      "Ġmarc": 5640,
      "Ġintro": 5641,
      "Ġgloves": 5642,
      "Ġliber": 5643,
      "Ġcheap": 5644,
      "Ġreached": 5645,
      "anche": 5646,
      "Ġorgasm": 5647,
      "iar": 5648,
      "Ġcass": 5649,
      "Ġfinger": 5650,
      "Ġtod": 5651,
      "ecess": 5652,
      "ulations": 5653,
      "utch": 5654,
      "ppers": 5655,
      "Ġjane": 5656,
      "irt": 5657,
      "rais": 5658,
      "Ġtrend": 5659,
      "Ġtitles": 5660,
      "Ġcompatible": 5661,
      "Ġassembly": 5662,
      "eas": 5663,
      "iance": 5664,
      "len": 5665,
      "Ġpills": 5666,
      "Ġfortun": 5667,
      "Ġtol": 5668,
      "Ġtape": 5669,
      "Ġgym": 5670,
      "abet": 5671,
      "Ġkne": 5672,
      "Ġsugg": 5673,
      "Ġboards": 5674,
      "Ġcrew": 5675,
      "Ġmotiv": 5676,
      "Ġdecades": 5677,
      "Ġdied": 5678,
      "Ġvisa": 5679,
      "Ġauthorities": 5680,
      "Ġshops": 5681,
      "Ġsnap": 5682,
      "Ġturkey": 5683,
      "Ġtailored": 5684,
      "Ġincredible": 5685,
      "Ġkorea": 5686,
      "Ġentrepreneur": 5687,
      "Ġeveryday": 5688,
      "bing": 5689,
      "iology": 5690,
      "vy": 5691,
      "anth": 5692,
      "Ġaunt": 5693,
      "Ġgd": 5694,
      "ading": 5695,
      "Ġhealing": 5696,
      "Ġapplies": 5697,
      "Ġmarsh": 5698,
      "Ġoffs": 5699,
      "Ġsupplier": 5700,
      "Ġlifetime": 5701,
      "Ġcapable": 5702,
      "Ġdefense": 5703,
      "Ġequipped": 5704,
      "Ġpackages": 5705,
      "Ġharv": 5706,
      "Ġtranslate": 5707,
      "Ġmixed": 5708,
      "Ġphilos": 5709,
      "Ġfishing": 5710,
      "Ġaustralian": 5711,
      "Ġannounce": 5712,
      "Ġparallel": 5713,
      "bu": 5714,
      "Ġcables": 5715,
      "Ġfred": 5716,
      "Ġky": 5717,
      "Ġkat": 5718,
      "ucle": 5719,
      "Ġtransmission": 5720,
      "Ġextend": 5721,
      "Ġattacks": 5722,
      "Ġwriter": 5723,
      "Ġwinner": 5724,
      "Ġcasinos": 5725,
      "Ġprinting": 5726,
      "Ġbaseball": 5727,
      "Ġrental": 5728,
      "Ġbench": 5729,
      "Ġdestination": 5730,
      "Ġreligion": 5731,
      "Ġhabit": 5732,
      "Ġattemp": 5733,
      "Ġexposure": 5734,
      "name": 5735,
      "Ġsending": 5736,
      "alk": 5737,
      "Ġbest": 5738,
      "Ġjur": 5739,
      "Ġboom": 5740,
      "Ġmotion": 5741,
      "Ġbron": 5742,
      "Ġreader": 5743,
      "Ġpublishing": 5744,
      "Ġinherit": 5745,
      "Ġperspective": 5746,
      "je": 5747,
      "Ġrib": 5748,
      "Ġille": 5749,
      "Ġpra": 5750,
      "enger": 5751,
      "Ġdna": 5752,
      "Ġeating": 5753,
      "Ġstro": 5754,
      "Ġchosen": 5755,
      "Ġsew": 5756,
      "Ġdisney": 5757,
      "Ġtrained": 5758,
      "Ġdepends": 5759,
      "Ġios": 5760,
      "Ġreduction": 5761,
      "Ġfailed": 5762,
      "Ġaluminum": 5763,
      "craft": 5764,
      "lights": 5765,
      "Ġfost": 5766,
      "Ġnas": 5767,
      "ifer": 5768,
      "Ġroute": 5769,
      "ires": 5770,
      "Ġmeat": 5771,
      "aza": 5772,
      "Ġanna": 5773,
      "Ġbrowsing": 5774,
      "Ġclosely": 5775,
      "Ġdinner": 5776,
      "Ġmun": 5777,
      "ican": 5778,
      "Ġnep": 5779,
      "Ġsem": 5780,
      "Ġscann": 5781,
      "phones": 5782,
      "tify": 5783,
      "Ġoperator": 5784,
      "Ġvegas": 5785,
      "Ġsaved": 5786,
      "Ġgardens": 5787,
      "Ġdocumentation": 5788,
      "Ġinstruments": 5789,
      "wan": 5790,
      "lex": 5791,
      "Ġlu": 5792,
      "Ġlikes": 5793,
      "Ġhat": 5794,
      "Ġhide": 5795,
      "Ġgap": 5796,
      "Ġexact": 5797,
      "Ġshred": 5798,
      "Ġleaf": 5799,
      "Ġagents": 5800,
      "Ġdesigner": 5801,
      "Ġwhit": 5802,
      "Ġemails": 5803,
      "Ġexcited": 5804,
      "Ġjackets": 5805,
      "Ġpreferred": 5806,
      "Ġcoaching": 5807,
      "Ġroutine": 5808,
      "Ġletters": 5809,
      "Ġacquisition": 5810,
      "Ġneighborhood": 5811,
      "Ġnashville": 5812,
      "zo": 5813,
      "Ġlong": 5814,
      "Ġgon": 5815,
      "agen": 5816,
      "Ġspending": 5817,
      "Ġongoing": 5818,
      "xxxx": 5819,
      "Ġdoors": 5820,
      "Ġrelief": 5821,
      "Ġcattle": 5822,
      "Ġearned": 5823,
      "Ġlaunched": 5824,
      "Ġfirms": 5825,
      "py": 5826,
      "orter": 5827,
      "Ġtatt": 5828,
      "Ġgang": 5829,
      "Ġstem": 5830,
      "Ġstability": 5831,
      "Ġleon": 5832,
      "inea": 5833,
      "Ġquery": 5834,
      "Ġinterv": 5835,
      "Ġregard": 5836,
      "Ġguess": 5837,
      "axy": 5838,
      "Ġformed": 5839,
      "Ġmeetings": 5840,
      "Ġbutt": 5841,
      "Ġidentified": 5842,
      "Ġdivision": 5843,
      "Ġrecognition": 5844,
      "Ġshadow": 5845,
      "Ġacrylic": 5846,
      "car": 5847,
      "pd": 5848,
      "Ġmi": 5849,
      "Ġcopper": 5850,
      "Ġvat": 5851,
      "Ġprohib": 5852,
      "irect": 5853,
      "Ġmarie": 5854,
      "Ġpermission": 5855,
      "Ġmeal": 5856,
      "Ġtreated": 5857,
      "Ġdiscre": 5858,
      "Ġvariable": 5859,
      "Ġterrit": 5860,
      "Ġclubs": 5861,
      "Ġheaven": 5862,
      "Ġreputation": 5863,
      "Ġenthusi": 5864,
      "core": 5865,
      "Ġdup": 5866,
      "Ġmu": 5867,
      "Ġmake": 5868,
      "Ġvenue": 5869,
      "abeth": 5870,
      "Ġtruck": 5871,
      "Ġmarg": 5872,
      "Ġpeak": 5873,
      "Ġposting": 5874,
      "Ġusb": 5875,
      "Ġdrugs": 5876,
      "Ġconcrete": 5877,
      "Ġcasual": 5878,
      "Ġtreatments": 5879,
      "Ġbeta": 5880,
      "Ġwalls": 5881,
      "adesh": 5882,
      "Ġliterature": 5883,
      "Ġandrew": 5884,
      "bn": 5885,
      "Ġcpr": 5886,
      "Ġdys": 5887,
      "Ġlam": 5888,
      "ila": 5889,
      "Ġchi": 5890,
      "Ġmarriage": 5891,
      "Ġoptional": 5892,
      "Ġaccessibility": 5893,
      "Ġdisclaim": 5894,
      "Ġcanvas": 5895,
      "Ġsilic": 5896,
      "Ġaspect": 5897,
      "Ġfrequency": 5898,
      "Ġpsychology": 5899,
      "Ġretirement": 5900,
      "bed": 5901,
      "las": 5902,
      "Ġhills": 5903,
      "athy": 5904,
      "afe": 5905,
      "Ġspeech": 5906,
      "Ġillustr": 5907,
      "Ġpenal": 5908,
      "Ġdipl": 5909,
      "Ġsecondary": 5910,
      "si": 5911,
      "sm": 5912,
      "Ġeb": 5913,
      "idi": 5914,
      "Ġvote": 5915,
      "Ġprol": 5916,
      "Ġrural": 5917,
      "Ġspain": 5918,
      "Ġcreates": 5919,
      "Ġloyal": 5920,
      "Ġbeer": 5921,
      "Ġcareers": 5922,
      "Ġsearching": 5923,
      "Ġlegitim": 5924,
      "Ġglad": 5925,
      "Ġcommonly": 5926,
      "Ġicons": 5927,
      "ystem": 5928,
      "Ġcomponent": 5929,
      "Ġpriority": 5930,
      "Ġdragon": 5931,
      "Ġzealand": 5932,
      "Ġfeaturing": 5933,
      "Ġalcohol": 5934,
      "Ġhem": 5935,
      "Ġcow": 5936,
      "izer": 5937,
      "Ġboot": 5938,
      "Ġbought": 5939,
      "Ġaccel": 5940,
      "Ġskill": 5941,
      "Ġlistings": 5942,
      "Ġtradem": 5943,
      "Ġcrossing": 5944,
      "Ġoptimal": 5945,
      "Ġconsultation": 5946,
      "Ġdrawing": 5947,
      "wind": 5948,
      "Ġpas": 5949,
      "Ġwid": 5950,
      "Ġvast": 5951,
      "Ġlect": 5952,
      "Ġanticip": 5953,
      "Ġdatas": 5954,
      "lette": 5955,
      "Ġafro": 5956,
      "Ġeventually": 5957,
      "Ġrepresentative": 5958,
      "Ġdiscovered": 5959,
      "ength": 5960,
      "Ġconsistent": 5961,
      "Ġadvisory": 5962,
      "Ġcherry": 5963,
      "Ġcryptocurrency": 5964,
      "standing": 5965,
      "Ġgab": 5966,
      "Ġwars": 5967,
      "Ġnik": 5968,
      "Ġrice": 5969,
      "Ġkl": 5970,
      "Ġkay": 5971,
      "iform": 5972,
      "Ġboston": 5973,
      "Ġdesired": 5974,
      "iking": 5975,
      "intendo": 5976,
      "Ġpaying": 5977,
      "Ġeastern": 5978,
      "Ġemployers": 5979,
      "Ġshoot": 5980,
      "Ġholy": 5981,
      "Ġapache": 5982,
      "Ġgradu": 5983,
      "Ġlessons": 5984,
      "ear": 5985,
      "hu": 5986,
      "Ġstim": 5987,
      "Ġbatch": 5988,
      "Ġlex": 5989,
      "Ġroles": 5990,
      "Ġimper": 5991,
      "Ġguides": 5992,
      "Ġcharged": 5993,
      "Ġretrie": 5994,
      "aha": 5995,
      "Ġgrown": 5996,
      "Ġsufficient": 5997,
      "Ġrinne": 5998,
      "lp": 5999,
      "Ġfusion": 6000,
      "chool": 6001,
      "atively": 6002,
      "Ġsteam": 6003,
      "Ġdirections": 6004,
      "Ġchecking": 6005,
      "Ġfried": 6006,
      "Ġslots": 6007,
      "Ġaccounting": 6008,
      "Ġcontrols": 6009,
      "Ġkevin": 6010,
      "Ġhallow": 6011,
      "Ġpowder": 6012,
      "Ġmutual": 6013,
      "Ġmerchand": 6014,
      "Ġsanta": 6015,
      "Ġtong": 6016,
      "Ġnintendo": 6017,
      "ecks": 6018,
      "rif": 6019,
      "ometry": 6020,
      "Ġheating": 6021,
      "Ġinvas": 6022,
      "Ġdesigning": 6023,
      "Ġattract": 6024,
      "Ġtheat": 6025,
      "Ġfemin": 6026,
      "rate": 6027,
      "Ġorth": 6028,
      "Ġcz": 6029,
      "Ġdock": 6030,
      "Ġbone": 6031,
      "itzer": 6032,
      "unge": 6033,
      "emed": 6034,
      "iest": 6035,
      "Ġanton": 6036,
      "Ġclip": 6037,
      "Ġperm": 6038,
      "issa": 6039,
      "Ġsuppliers": 6040,
      "ships": 6041,
      "Ġinspection": 6042,
      "Ġinitiatives": 6043,
      "Ġmeasurement": 6044,
      "Ġspray": 6045,
      "Ġinvestigation": 6046,
      "Ġcyber": 6047,
      "Ġvegetables": 6048,
      "iers": 6049,
      "inks": 6050,
      "Ġppo": 6051,
      "alf": 6052,
      "orrow": 6053,
      "Ġstatic": 6054,
      "chem": 6055,
      "Ġkenn": 6056,
      "Ġadm": 6057,
      "Ġmoments": 6058,
      "Ġpurs": 6059,
      "Ġbringing": 6060,
      "Ġagriculture": 6061,
      "Ġfraud": 6062,
      "Ġexceed": 6063,
      "Ġplumb": 6064,
      "Ġcontained": 6065,
      "Ġcommerce": 6066,
      "Ġincident": 6067,
      "Ġrecon": 6068,
      "Ġneuro": 6069,
      "Ġbusy": 6070,
      "Ġtechnic": 6071,
      "Ġfilms": 6072,
      "print": 6073,
      "Ġavenue": 6074,
      "Ġsecurities": 6075,
      "Ġarchives": 6076,
      "Ġcircle": 6077,
      "Ġcolours": 6078,
      "Ġdurable": 6079,
      "Ġgalaxy": 6080,
      "Ġswimming": 6081,
      "adel": 6082,
      "rian": 6083,
      "Ġru": 6084,
      "Ġkits": 6085,
      "Ġcontracts": 6086,
      "asses": 6087,
      "Ġdisabled": 6088,
      "licit": 6089,
      "Ġbearing": 6090,
      "Ġguinea": 6091,
      "Ġgray": 6092,
      "Ġdelicious": 6093,
      "Ġpursu": 6094,
      "Ġdoi": 6095,
      "pring": 6096,
      "Ġinspiration": 6097,
      "Ġconfirmation": 6098,
      "Ġneckl": 6099,
      "Ġscheme": 6100,
      "file": 6101,
      "front": 6102,
      "Ġeric": 6103,
      "anks": 6104,
      "Ġmack": 6105,
      "idential": 6106,
      "Ġjason": 6107,
      "uct": 6108,
      "Ġseal": 6109,
      "Ġmarks": 6110,
      "Ġalloc": 6111,
      "Ġtypical": 6112,
      "Ġera": 6113,
      "Ġarth": 6114,
      "Ġcardiac": 6115,
      "Ġcandidates": 6116,
      "Ġsegment": 6117,
      "Ġrenew": 6118,
      "Ġmortgage": 6119,
      "Ġphilosoph": 6120,
      "bra": 6121,
      "Ġfellow": 6122,
      "lett": 6123,
      "Ġrein": 6124,
      "Ġebook": 6125,
      "Ġact": 6126,
      "Ġcarried": 6127,
      "Ġproven": 6128,
      "Ġoutcomes": 6129,
      "Ġconnec": 6130,
      "Ġfacing": 6131,
      "Ġengineer": 6132,
      "Ġworkplace": 6133,
      "Ġbiom": 6134,
      "Ġdavis": 6135,
      "Ġlibraries": 6136,
      "Ġecos": 6137,
      "Ġphotographs": 6138,
      "Ġmirror": 6139,
      "Ġzoom": 6140,
      "Ġbottle": 6141,
      "Ġsituations": 6142,
      "Ġscheduled": 6143,
      "Ġexchanges": 6144,
      "pm": 6145,
      "Ġpull": 6146,
      "ito": 6147,
      "Ġmolec": 6148,
      "Ġgran": 6149,
      "Ġvisibility": 6150,
      "Ġlightweight": 6151,
      "Ġessay": 6152,
      "onto": 6153,
      "Ġgrain": 6154,
      "Ġbreakfast": 6155,
      "Ġjackson": 6156,
      "Ġdegrees": 6157,
      "Ġobserv": 6158,
      "Ġchannels": 6159,
      "Ġmanufacturers": 6160,
      "kee": 6161,
      "produc": 6162,
      "table": 6163,
      "oned": 6164,
      "Ġlift": 6165,
      "Ġrug": 6166,
      "Ġkal": 6167,
      "Ġsemi": 6168,
      "ishing": 6169,
      "Ġretain": 6170,
      "Ġlegs": 6171,
      "ennis": 6172,
      "Ġaudi": 6173,
      "Ġverify": 6174,
      "rooms": 6175,
      "uki": 6176,
      "Ġdisplayed": 6177,
      "Ġdreams": 6178,
      "Ġfirewall": 6179,
      "Ġwouldn": 6180,
      "Ġelizabeth": 6181,
      "Ġie": 6182,
      "Ġmcc": 6183,
      "Ġbac": 6184,
      "Ġbills": 6185,
      "Ġfasc": 6186,
      "Ġstocks": 6187,
      "Ġvanc": 6188,
      "ird": 6189,
      "irus": 6190,
      "Ġsher": 6191,
      "ione": 6192,
      "Ġcompound": 6193,
      "akh": 6194,
      "Ġross": 6195,
      "Ġbegin": 6196,
      "Ġagt": 6197,
      "pton": 6198,
      "Ġengaging": 6199,
      "Ġsmok": 6200,
      "Ġentered": 6201,
      "Ġincreasingly": 6202,
      "Ġcarolina": 6203,
      "Ġdemocr": 6204,
      "Ġsleeve": 6205,
      "Ġbodies": 6206,
      "Ġcheese": 6207,
      "Ġcongress": 6208,
      "Ġnaturally": 6209,
      "bd": 6210,
      "lake": 6211,
      "pot": 6212,
      "ras": 6213,
      "inity": 6214,
      "Ġsab": 6215,
      "Ġdj": 6216,
      "Ġdenti": 6217,
      "Ġmes": 6218,
      "Ġrede": 6219,
      "ela": 6220,
      "abling": 6221,
      "Ġracing": 6222,
      "Ġlease": 6223,
      "ogen": 6224,
      "esthe": 6225,
      "athan": 6226,
      "Ġbread": 6227,
      "Ġvacu": 6228,
      "Ġholding": 6229,
      "Ġcrafts": 6230,
      "Ġteachers": 6231,
      "Ġsubmitted": 6232,
      "Ġpromotions": 6233,
      "Ġfolder": 6234,
      "Ġanchor": 6235,
      "obs": 6236,
      "onic": 6237,
      "Ġmol": 6238,
      "Ġfucking": 6239,
      "etary": 6240,
      "etric": 6241,
      "Ġchand": 6242,
      "Ġshorts": 6243,
      "Ġoutstanding": 6244,
      "Ġconclud": 6245,
      "Ġprevention": 6246,
      "Ġbreaking": 6247,
      "Ġraise": 6248,
      "Ġsandwich": 6249,
      "Ġpromotion": 6250,
      "Ġhawai": 6251,
      "info": 6252,
      "alo": 6253,
      "Ġlip": 6254,
      "ulous": 6255,
      "Ġkir": 6256,
      "uda": 6257,
      "Ġphoen": 6258,
      "Ġinteract": 6259,
      "Ġbuyer": 6260,
      "Ġnovel": 6261,
      "Ġswift": 6262,
      "Ġsoccer": 6263,
      "Ġtemple": 6264,
      "Ġpromoting": 6265,
      "Ġtours": 6266,
      "Ġexecution": 6267,
      "record": 6268,
      "Ġresearchers": 6269,
      "cies": 6270,
      "otive": 6271,
      "Ġallen": 6272,
      "Ġdil": 6273,
      "Ġml": 6274,
      "Ġbub": 6275,
      "Ġhes": 6276,
      "Ġnucle": 6277,
      "Ġstones": 6278,
      "ige": 6279,
      "Ġcham": 6280,
      "ppy": 6281,
      "Ġron": 6282,
      "Ġprovisions": 6283,
      "Ġreceip": 6284,
      "Ġartwork": 6285,
      "Ġcircuit": 6286,
      "Ġmassive": 6287,
      "Ġnotify": 6288,
      "Ġsprings": 6289,
      "Ġsevere": 6290,
      "Ġpearl": 6291,
      "Ġsams": 6292,
      "Ġtutor": 6293,
      "Ġlag": 6294,
      "Ġhors": 6295,
      "Ġwool": 6296,
      "Ġstable": 6297,
      "Ġcha": 6298,
      "Ġdisorder": 6299,
      "Ġindones": 6300,
      "Ġmeets": 6301,
      "Ġsubjects": 6302,
      "Ġswing": 6303,
      "Ġgreat": 6304,
      "Ġconfident": 6305,
      "Ġaustin": 6306,
      "ouver": 6307,
      "Ġbigger": 6308,
      "Ġcompilation": 6309,
      "Ġwishlist": 6310,
      "vs": 6311,
      "Ġlie": 6312,
      "Ġlamp": 6313,
      "Ġnin": 6314,
      "Ġvoid": 6315,
      "essed": 6316,
      "Ġloop": 6317,
      "Ġinterp": 6318,
      "Ġbuyers": 6319,
      "Ġtooth": 6320,
      "Ġoperate": 6321,
      "Ġdiscounts": 6322,
      "Ġmalays": 6323,
      "Ġmatching": 6324,
      "Ġtrim": 6325,
      "Ġwashing": 6326,
      "Ġadministrative": 6327,
      "Ġconducted": 6328,
      "Ġoriginally": 6329,
      "Ġdemocratic": 6330,
      "Ġbmw": 6331,
      "Ġplacement": 6332,
      "Ġconflict": 6333,
      "Ġpreparation": 6334,
      "mod": 6335,
      "rise": 6336,
      "Ġgil": 6337,
      "chain": 6338,
      "Ġapprais": 6339,
      "Ġboots": 6340,
      "ours": 6341,
      "Ġneed": 6342,
      "Ġfintech": 6343,
      "Ġstrugg": 6344,
      "Ġcustomized": 6345,
      "Ġtargets": 6346,
      "Ġevalu": 6347,
      "Ġportion": 6348,
      "Ġagricultural": 6349,
      "Ġscratch": 6350,
      "Ġegypt": 6351,
      "Ġhalloween": 6352,
      "Ġvancouver": 6353,
      "zb": 6354,
      "Ġmike": 6355,
      "Ġace": 6356,
      "agon": 6357,
      "Ġtie": 6358,
      "Ġquotes": 6359,
      "aze": 6360,
      "Ġdirectors": 6361,
      "Ġclinic": 6362,
      "Ġtokyo": 6363,
      "Ġdangerous": 6364,
      "Ġlicensed": 6365,
      "Ġembedded": 6366,
      "rid": 6367,
      "reen": 6368,
      "Ġmats": 6369,
      "Ġech": 6370,
      "Ġstake": 6371,
      "Ġvpn": 6372,
      "Ġscul": 6373,
      "Ġloves": 6374,
      "Ġorg": 6375,
      "Ġevil": 6376,
      "Ġmining": 6377,
      "Ġbreach": 6378,
      "Ġequival": 6379,
      "Ġlimits": 6380,
      "Ġanalyz": 6381,
      "Ġmaintained": 6382,
      "Ġbridging": 6383,
      "Ġmuscle": 6384,
      "Ġrecipes": 6385,
      "Ġshoulder": 6386,
      "jack": 6387,
      "Ġsd": 6388,
      "Ġward": 6389,
      "Ġvon": 6390,
      "Ġspark": 6391,
      "Ġspots": 6392,
      "Ġplacing": 6393,
      "Ġcontest": 6394,
      "Ġtran": 6395,
      "Ġmarine": 6396,
      "Ġbrace": 6397,
      "Ġexposed": 6398,
      "Ġincreases": 6399,
      "Ġballs": 6400,
      "Ġthemes": 6401,
      "Ġryan": 6402,
      "Ġscotland": 6403,
      "kr": 6404,
      "nn": 6405,
      "anes": 6406,
      "eding": 6407,
      "Ġbare": 6408,
      "Ġtum": 6409,
      "Ġlav": 6410,
      "Ġhass": 6411,
      "Ġhats": 6412,
      "igar": 6413,
      "chi": 6414,
      "raine": 6415,
      "Ġcomply": 6416,
      "enda": 6417,
      "uston": 6418,
      "Ġarrow": 6419,
      "Ġquiet": 6420,
      "Ġministry": 6421,
      "Ġsurprise": 6422,
      "Ġxham": 6423,
      "Ġenvironments": 6424,
      "Ġtracks": 6425,
      "Ġseller": 6426,
      "Ġapplying": 6427,
      "Ġalliance": 6428,
      "Ġenhanced": 6429,
      "ski": 6430,
      "Ġsuffer": 6431,
      "Ġsleeping": 6432,
      "limited": 6433,
      "Ġconstitution": 6434,
      "Ġencounter": 6435,
      "casts": 6436,
      "lined": 6437,
      "ener": 6438,
      "Ġdor": 6439,
      "lements": 6440,
      "Ġlen": 6441,
      "Ġwolf": 6442,
      "Ġconcepts": 6443,
      "Ġrhod": 6444,
      "Ġka": 6445,
      "Ġenem": 6446,
      "Ġuniform": 6447,
      "usters": 6448,
      "Ġfeels": 6449,
      "Ġinclus": 6450,
      "Ġexpense": 6451,
      "Ġemissions": 6452,
      "tiveness": 6453,
      "Ġcommunicate": 6454,
      "Ġdefine": 6455,
      "Ġlived": 6456,
      "Ġbiology": 6457,
      "Ġphysics": 6458,
      "Ġwordpress": 6459,
      "Ġtelevision": 6460,
      "Ġrobust": 6461,
      "Ġclothes": 6462,
      "Ġoxy": 6463,
      "Ġputting": 6464,
      "Ġxhamster": 6465,
      "oids": 6466,
      "Ġcake": 6467,
      "Ġpants": 6468,
      "Ġtack": 6469,
      "Ġlasting": 6470,
      "Ġhund": 6471,
      "Ġlever": 6472,
      "aints": 6473,
      "Ġarms": 6474,
      "comp": 6475,
      "Ġdetect": 6476,
      "reds": 6477,
      "Ġtough": 6478,
      "Ġappeal": 6479,
      "Ġestimates": 6480,
      "Ġimmig": 6481,
      "Ġpolitics": 6482,
      "Ġdollars": 6483,
      "Ġoxford": 6484,
      "Ġcampaigns": 6485,
      "Ġbelieves": 6486,
      "Ġhollywood": 6487,
      "Ġanxiety": 6488,
      "Ġphoenix": 6489,
      "Ġbacter": 6490,
      "Ġdispl": 6491,
      "Ġparks": 6492,
      "phy": 6493,
      "Ġyard": 6494,
      "Ġreleases": 6495,
      "Ġdiscussed": 6496,
      "Ġconfirmed": 6497,
      "Ġminimal": 6498,
      "Ġimagine": 6499,
      "Ġcolumbia": 6500,
      "Ġgenuine": 6501,
      "Ġmerchandise": 6502,
      "east": 6503,
      "Ġcrop": 6504,
      "Ġfake": 6505,
      "Ġrack": 6506,
      "Ġkil": 6507,
      "under": 6508,
      "Ġoffices": 6509,
      "Ġlovely": 6510,
      "Ġsalv": 6511,
      "letes": 6512,
      "Ġapproaches": 6513,
      "bbw": 6514,
      "Ġproposal": 6515,
      "Ġcelebrate": 6516,
      "Ġcomputers": 6517,
      "Ġultimately": 6518,
      "Ġparameters": 6519,
      "Ġalgorithm": 6520,
      "Ġdialog": 6521,
      "Ġnigeria": 6522,
      "Ġelectronics": 6523,
      "ker": 6524,
      "iner": 6525,
      "Ġpec": 6526,
      "Ġmesh": 6527,
      "Ġlies": 6528,
      "Ġkent": 6529,
      "Ġcontrast": 6530,
      "Ġbush": 6531,
      "count": 6532,
      "Ġdelivering": 6533,
      "Ġuniversal": 6534,
      "Ġwallet": 6535,
      "Ġhighlights": 6536,
      "Ġoils": 6537,
      "Ġintegrity": 6538,
      "Ġfigures": 6539,
      "Ġhospit": 6540,
      "Ġpige": 6541,
      "Ġintellect": 6542,
      "Ġblonde": 6543,
      "Ġinheritance": 6544,
      "Ġhundreds": 6545,
      "lings": 6546,
      "eland": 6547,
      "Ġsha": 6548,
      "Ġspa": 6549,
      "Ġseats": 6550,
      "esting": 6551,
      "Ġant": 6552,
      "Ġamen": 6553,
      "arium": 6554,
      "Ġlegend": 6555,
      "Ġshooting": 6556,
      "Ġcausing": 6557,
      "Ġbullet": 6558,
      "Ġimplemented": 6559,
      "Ġwriters": 6560,
      "Ġarrived": 6561,
      "card": 6562,
      "post": 6563,
      "rp": 6564,
      "Ġud": 6565,
      "Ġpork": 6566,
      "Ġfits": 6567,
      "Ġted": 6568,
      "Ġlens": 6569,
      "Ġcombo": 6570,
      "iah": 6571,
      "Ġpersons": 6572,
      "Ġversions": 6573,
      "Ġdiscussions": 6574,
      "Ġrepresents": 6575,
      "Ġassoci": 6576,
      "Ġlayout": 6577,
      "Ġtherapist": 6578,
      "Ġconcerned": 6579,
      "Ġjewell": 6580,
      "Ġsatisfied": 6581,
      "Ġsurvival": 6582,
      "Ġsubstit": 6583,
      "Ġupgrade": 6584,
      "Ġnursing": 6585,
      "Ġvacuum": 6586,
      "Ġsized": 6587,
      "Ġpenc": 6588,
      "Ġay": 6589,
      "isure": 6590,
      "Ġgad": 6591,
      "Ġstamp": 6592,
      "Ġacts": 6593,
      "Ġunable": 6594,
      "Ġproducing": 6595,
      "ativity": 6596,
      "cover": 6597,
      "Ġpopup": 6598,
      "Ġparticipation": 6599,
      "Ġrobot": 6600,
      "Ġemerging": 6601,
      "Ġinstructor": 6602,
      "Ġhearts": 6603,
      "Ġpuzz": 6604,
      "Ġadvertisement": 6605,
      "aron": 6606,
      "icates": 6607,
      "Ġlit": 6608,
      "Ġwing": 6609,
      "Ġni": 6610,
      "Ġunlimited": 6611,
      "Ġhey": 6612,
      "aven": 6613,
      "Ġtrav": 6614,
      "Ġpersonality": 6615,
      "Ġvisible": 6616,
      "Ġauthorized": 6617,
      "Ġcleaner": 6618,
      "Ġverified": 6619,
      "Ġtexture": 6620,
      "Ġphilipp": 6621,
      "Ġcups": 6622,
      "Ġvibrant": 6623,
      "Ġaunty": 6624,
      "made": 6625,
      "Ġsight": 6626,
      "Ġcav": 6627,
      "Ġbos": 6628,
      "Ġcoat": 6629,
      "Ġstats": 6630,
      "Ġspac": 6631,
      "Ġbrides": 6632,
      "Ġtraversable": 6633,
      "Ġorganisation": 6634,
      "Ġavg": 6635,
      "Ġflood": 6636,
      "Ġapprox": 6637,
      "Ġgovernance": 6638,
      "Ġconstantly": 6639,
      "Ġtwin": 6640,
      "Ġsync": 6641,
      "Ġsharingan": 6642,
      "Ġsamples": 6643,
      "Ġstreaming": 6644,
      "Ġexception": 6645,
      "Ġbluey": 6646,
      "Ġpakistan": 6647,
      "Ġsculpt": 6648,
      "Ġfiction": 6649,
      "Ġreform": 6650,
      "Ġnit": 6651,
      "Ġstack": 6652,
      "Ġchances": 6653,
      "enders": 6654,
      "Ġresort": 6655,
      "Ġbeef": 6656,
      "Ġmeant": 6657,
      "Ġcustoms": 6658,
      "Ġlinux": 6659,
      "Ġamericans": 6660,
      "Ġbelg": 6661,
      "Ġdescrib": 6662,
      "Ġappeared": 6663,
      "Ġpopularity": 6664,
      "Ġearnings": 6665,
      "Ġbrothers": 6666,
      "Ġremarkable": 6667,
      "Ġbachelor": 6668,
      "Ġplumbing": 6669,
      "rates": 6670,
      "Ġbil": 6671,
      "Ġbure": 6672,
      "Ġwis": 6673,
      "Ġconfer": 6674,
      "Ġjpg": 6675,
      "Ġadam": 6676,
      "Ġresc": 6677,
      "ailand": 6678,
      "Ġnear": 6679,
      "Ġediting": 6680,
      "Ġinsight": 6681,
      "Ġstartup": 6682,
      "Ġorganis": 6683,
      "Ġanalog": 6684,
      "Ġlogged": 6685,
      "Ġsafely": 6686,
      "Ġannivers": 6687,
      "Ġhotels": 6688,
      "Ġnether": 6689,
      "Ġrising": 6690,
      "Ġladies": 6691,
      "Ġnarrow": 6692,
      "Ġpowers": 6693,
      "Ġimpressive": 6694,
      "Ġvictoria": 6695,
      "cp": 6696,
      "oft": 6697,
      "zie": 6698,
      "Ġot": 6699,
      "Ġcin": 6700,
      "rect": 6701,
      "tible": 6702,
      "Ġdive": 6703,
      "Ġaesthe": 6704,
      "Ġfing": 6705,
      "Ġfind": 6706,
      "Ġhash": 6707,
      "Ġrings": 6708,
      "Ġshr": 6709,
      "Ġassume": 6710,
      "Ġgrid": 6711,
      "Ġconstant": 6712,
      "Ġblogs": 6713,
      "Ġcolorado": 6714,
      "Ġpublisher": 6715,
      "Ġbatter": 6716,
      "Ġexcellence": 6717,
      "Ġremaining": 6718,
      "Ġcontinuous": 6719,
      "Ġsurrounding": 6720,
      "Ġgentle": 6721,
      "link": 6722,
      "mann": 6723,
      "Ġbeds": 6724,
      "Ġtu": 6725,
      "urity": 6726,
      "uto": 6727,
      "Ġkansas": 6728,
      "Ġshif": 6729,
      "Ġplas": 6730,
      "Ġsoap": 6731,
      "iano": 6732,
      "Ġdepression": 6733,
      "Ġobst": 6734,
      "Ġscreens": 6735,
      "Ġownership": 6736,
      "idney": 6737,
      "Ġliable": 6738,
      "Ġtoronto": 6739,
      "Ġpossibility": 6740,
      "Ġfucked": 6741,
      "Ġfunctionalities": 6742,
      "Ġsymbols": 6743,
      "Ġelegant": 6744,
      "dale": 6745,
      "wau": 6746,
      "Ġmud": 6747,
      "Ġfork": 6748,
      "Ġcocon": 6749,
      "Ġprost": 6750,
      "Ġoven": 6751,
      "rix": 6752,
      "Ġaddiction": 6753,
      "Ġjoining": 6754,
      "Ġstephen": 6755,
      "Ġautomotive": 6756,
      "Ġimprovements": 6757,
      "Ġsensor": 6758,
      "Ġemotions": 6759,
      "Ġwheels": 6760,
      "Ġmeasurements": 6761,
      "Ġpercentage": 6762,
      "Ġhazard": 6763,
      "Ġobligations": 6764,
      "Ġdestroy": 6765,
      "Ġtimberlake": 6766,
      "Ġversatile": 6767,
      "itzerland": 6768,
      "Ġsamsung": 6769,
      "ctive": 6770,
      "Ġsix": 6771,
      "Ġnan": 6772,
      "Ġnude": 6773,
      "Ġvip": 6774,
      "Ġriding": 6775,
      "Ġker": 6776,
      "isting": 6777,
      "Ġmanagers": 6778,
      "Ġequals": 6779,
      "Ġglobe": 6780,
      "aneous": 6781,
      "Ġenjoyed": 6782,
      "Ġtomorrow": 6783,
      "Ġglasses": 6784,
      "Ġtelephone": 6785,
      "Ġreferred": 6786,
      "holder": 6787,
      "Ġfaqs": 6788,
      "Ġbangl": 6789,
      "Ġcosme": 6790,
      "Ġarrangements": 6791,
      "respond": 6792,
      "Ġorchest": 6793,
      "Ġoxygen": 6794,
      "function": 6795,
      "Ġik": 6796,
      "Ġliver": 6797,
      "Ġhib": 6798,
      "Ġgmb": 6799,
      "Ġcompass": 6800,
      "okes": 6801,
      "Ġarrive": 6802,
      "Ġthailand": 6803,
      "Ġphen": 6804,
      "ketch": 6805,
      "Ġconsists": 6806,
      "Ġswitzerland": 6807,
      "Ġgeneric": 6808,
      "Ġaffairs": 6809,
      "Ġrequested": 6810,
      "Ġtranslations": 6811,
      "Ġpalm": 6812,
      "Ġacquired": 6813,
      "Ġbreeding": 6814,
      "Ġcomposite": 6815,
      "Ġaccomplish": 6816,
      "Ġpond": 6817,
      "Ġbes": 6818,
      "Ġlane": 6819,
      "Ġhiring": 6820,
      "Ġcogn": 6821,
      "uns": 6822,
      "Ġwake": 6823,
      "urious": 6824,
      "mentary": 6825,
      "Ġsek": 6826,
      "Ġclay": 6827,
      "Ġpride": 6828,
      "Ġalter": 6829,
      "Ġblade": 6830,
      "Ġjoist": 6831,
      "annah": 6832,
      "Ġinvo": 6833,
      "Ġstudios": 6834,
      "Ġisol": 6835,
      "Ġglob": 6836,
      "Ġoccurs": 6837,
      "Ġexplained": 6838,
      "Ġexploration": 6839,
      "Ġcaught": 6840,
      "Ġbrian": 6841,
      "Ġdifficulty": 6842,
      "Ġlimitations": 6843,
      "Ġvitamin": 6844,
      "Ġtrigger": 6845,
      "waukee": 6846,
      "Ġgmbh": 6847,
      "Ġsum": 6848,
      "Ġcoin": 6849,
      "Ġway": 6850,
      "Ġkav": 6851,
      "Ġunlock": 6852,
      "Ġguit": 6853,
      "Ġbasically": 6854,
      "Ġsurve": 6855,
      "Ġcape": 6856,
      "Ġdefic": 6857,
      "Ġpoetry": 6858,
      "ycle": 6859,
      "Ġtheater": 6860,
      "Ġspeakers": 6861,
      "Ġrepresented": 6862,
      "Ġevaluate": 6863,
      "Ġenhancement": 6864,
      "Ġhabits": 6865,
      "Ġmathema": 6866,
      "Ġmasturb": 6867,
      "Ġpoker": 6868,
      "Ġwrestling": 6869,
      "Ġapparel": 6870,
      "Ġpursuing": 6871,
      "Ġanniversary": 6872,
      "ez": 6873,
      "Ġslic": 6874,
      "Ġsql": 6875,
      "Ġsketch": 6876,
      "Ġfax": 6877,
      "Ġlan": 6878,
      "Ġchecks": 6879,
      "Ġanne": 6880,
      "ighter": 6881,
      "Ġheater": 6882,
      "Ġbump": 6883,
      "Ġdeveloper": 6884,
      "Ġwholes": 6885,
      "Ġxn": 6886,
      "Ġslides": 6887,
      "Ġlawyer": 6888,
      "Ġholes": 6889,
      "Ġportable": 6890,
      "Ġjunior": 6891,
      "Ġcellul": 6892,
      "Ġhosted": 6893,
      "Ġsynth": 6894,
      "Ġefficiently": 6895,
      "Ġhazards": 6896,
      "Ġvolunteer": 6897,
      "Ġjuris": 6898,
      "Ġindonesia": 6899,
      "Ġintellectual": 6900,
      "Ġsag": 6901,
      "Ġfon": 6902,
      "Ġtast": 6903,
      "Ġlil": 6904,
      "Ġeag": 6905,
      "Ġvine": 6906,
      "cha": 6907,
      "riers": 6908,
      "Ġtil": 6909,
      "Ġsolve": 6910,
      "Ġcorrespond": 6911,
      "Ġbelt": 6912,
      "Ġaftern": 6913,
      "Ġhouston": 6914,
      "Ġviet": 6915,
      "Ġsweat": 6916,
      "Ġassociate": 6917,
      "Ġrender": 6918,
      "Ġnotifications": 6919,
      "Ġduration": 6920,
      "Ġventure": 6921,
      "Ġcandidate": 6922,
      "Ġtheatre": 6923,
      "Ġnearby": 6924,
      "Ġnetherlands": 6925,
      "Ġby": 6926,
      "Ġhond": 6927,
      "Ġgp": 6928,
      "Ġintim": 6929,
      "Ġchest": 6930,
      "Ġround": 6931,
      "Ġmeals": 6932,
      "Ġstrings": 6933,
      "Ġengaged": 6934,
      "Ġtox": 6935,
      "Ġdistingu": 6936,
      "Ġprize": 6937,
      "Ġmilwaukee": 6938,
      "Ġfooter": 6939,
      "Ġsitting": 6940,
      "Ġinflamm": 6941,
      "Ġexistence": 6942,
      "Ġillness": 6943,
      "Ġgrove": 6944,
      "Ġghost": 6945,
      "Ġlucky": 6946,
      "Ġcooper": 6947,
      "Ġalgorithms": 6948,
      "Ġdisclosure": 6949,
      "Ġafrobeat": 6950,
      "Ġorgans": 6951,
      "Ġjewellery": 6952,
      "bel": 6953,
      "inum": 6954,
      "ori": 6955,
      "Ġdvd": 6956,
      "Ġhil": 6957,
      "Ġinfer": 6958,
      "chron": 6959,
      "stream": 6960,
      "Ġkan": 6961,
      "Ġenabling": 6962,
      "ime": 6963,
      "Ġmanif": 6964,
      "Ġremind": 6965,
      "Ġcoupon": 6966,
      "Ġutility": 6967,
      "proof": 6968,
      "Ġrepairs": 6969,
      "Ġconversion": 6970,
      "Ġfiber": 6971,
      "Ġfighting": 6972,
      "Ġjuice": 6973,
      "Ġcomposition": 6974,
      "Ġwilson": 6975,
      "Ġpregnant": 6976,
      "Ġpartial": 6977,
      "Ġbottles": 6978,
      "Ġsasuke": 6979,
      "Ġobituary": 6980,
      "Ġgreatly": 6981,
      "Ġig": 6982,
      "Ġsick": 6983,
      "real": 6984,
      "reed": 6985,
      "Ġrehab": 6986,
      "aco": 6987,
      "abad": 6988,
      "osa": 6989,
      "opher": 6990,
      "Ġsupre": 6991,
      "Ġinclusion": 6992,
      "lix": 6993,
      "Ġcrash": 6994,
      "Ġmush": 6995,
      "Ġknife": 6996,
      "Ġvertical": 6997,
      "Ġautomation": 6998,
      "Ġconnecting": 6999,
      "Ġrecommendations": 7000,
      "Ġrecognize": 7001,
      "Ġathletes": 7002,
      "Ġfulfill": 7003,
      "Ġdecrease": 7004,
      "Ġappliances": 7005,
      "Ġmoisture": 7006,
      "etit": 7007,
      "ju": 7008,
      "sl": 7009,
      "vt": 7010,
      "Ġbill": 7011,
      "Ġwow": 7012,
      "otte": 7013,
      "Ġvector": 7014,
      "Ġchip": 7015,
      "Ġexter": 7016,
      "ostic": 7017,
      "Ġprison": 7018,
      "Ġpermit": 7019,
      "Ġoracle": 7020,
      "Ġintermed": 7021,
      "awa": 7022,
      "Ġskilled": 7023,
      "Ġformal": 7024,
      "Ġouter": 7025,
      "raction": 7026,
      "Ġaims": 7027,
      "Ġburning": 7028,
      "Ġtamil": 7029,
      "Ġscholarship": 7030,
      "abetes": 7031,
      "Ġdentist": 7032,
      "ew": 7033,
      "ele": 7034,
      "oh": 7035,
      "Ġtent": 7036,
      "Ġlac": 7037,
      "Ġwy": 7038,
      "Ġrul": 7039,
      "Ġcompetit": 7040,
      "Ġprayer": 7041,
      "ugu": 7042,
      "Ġmeg": 7043,
      "Ġprofiles": 7044,
      "Ġcosta": 7045,
      "Ġtemporary": 7046,
      "Ġmemories": 7047,
      "Ġbutch": 7048,
      "Ġeuro": 7049,
      "Ġperiods": 7050,
      "Ġrepresentation": 7051,
      "Ġhonor": 7052,
      "Ġolymp": 7053,
      "Ġderived": 7054,
      "Ġcorrectly": 7055,
      "Ġwheat": 7056,
      "Ġuncertain": 7057,
      "Ġinherited": 7058,
      "Ġvalentine": 7059,
      "Ġlegislation": 7060,
      "Ġvnq": 7061,
      "Ġhorses": 7062,
      "Ġmalaysia": 7063,
      "Ġpine": 7064,
      "Ġdal": 7065,
      "Ġais": 7066,
      "Ġluna": 7067,
      "iler": 7068,
      "olas": 7069,
      "aming": 7070,
      "adata": 7071,
      "rimin": 7072,
      "Ġku": 7073,
      "Ġdeuts": 7074,
      "aph": 7075,
      "Ġunn": 7076,
      "Ġresidence": 7077,
      "Ġdisrup": 7078,
      "Ġteens": 7079,
      "Ġalice": 7080,
      "Ġalert": 7081,
      "Ġthu": 7082,
      "Ġsku": 7083,
      "Ġmarketplace": 7084,
      "Ġgreek": 7085,
      "Ġelder": 7086,
      "Ġkeyboard": 7087,
      "Ġlawyers": 7088,
      "Ġdemo": 7089,
      "Ġstylish": 7090,
      "Ġvolt": 7091,
      "Ġwooden": 7092,
      "Ġantib": 7093,
      "Ġblockchain": 7094,
      "Ġodd": 7095,
      "Ġbluet": 7096,
      "Ġvenus": 7097,
      "Ġoccasionally": 7098,
      "Ġshapes": 7099,
      "Ġtrouble": 7100,
      "Ġsuggested": 7101,
      "oup": 7102,
      "tory": 7103,
      "Ġuc": 7104,
      "rets": 7105,
      "Ġmouse": 7106,
      "Ġbry": 7107,
      "Ġlith": 7108,
      "eco": 7109,
      "Ġchrome": 7110,
      "Ġjet": 7111,
      "teen": 7112,
      "Ġmood": 7113,
      "Ġpeer": 7114,
      "Ġconscious": 7115,
      "Ġtransc": 7116,
      "Ġmodify": 7117,
      "Ġcareful": 7118,
      "Ġformula": 7119,
      "Ġspecialized": 7120,
      "Ġlimitation": 7121,
      "Ġsimpl": 7122,
      "Ġportra": 7123,
      "Ġbulk": 7124,
      "Ġexercises": 7125,
      "Ġexclusively": 7126,
      "Ġcalculator": 7127,
      "Ġpassionate": 7128,
      "Ġsophistic": 7129,
      "dd": 7130,
      "fil": 7131,
      "via": 7132,
      "Ġsod": 7133,
      "Ġbold": 7134,
      "itate": 7135,
      "Ġchick": 7136,
      "Ġjazz": 7137,
      "Ġexit": 7138,
      "irl": 7139,
      "Ġshield": 7140,
      "isters": 7141,
      "arent": 7142,
      "uggle": 7143,
      "Ġdiy": 7144,
      "Ġfruits": 7145,
      "Ġcompletion": 7146,
      "Ġapplicants": 7147,
      "Ġslight": 7148,
      "Ġheads": 7149,
      "Ġengineers": 7150,
      "Ġutilize": 7151,
      "Ġtargeted": 7152,
      "Ġgraphic": 7153,
      "boro": 7154,
      "Ġpilot": 7155,
      "Ġlowest": 7156,
      "bell": 7157,
      "fare": 7158,
      "uge": 7159,
      "ww": 7160,
      "Ġbern": 7161,
      "Ġreaction": 7162,
      "Ġwaters": 7163,
      "Ġnys": 7164,
      "Ġrt": 7165,
      "osh": 7166,
      "Ġlemon": 7167,
      "Ġcomprom": 7168,
      "izard": 7169,
      "Ġresident": 7170,
      "Ġboun": 7171,
      "Ġquest": 7172,
      "Ġphd": 7173,
      "Ġloads": 7174,
      "Ġblues": 7175,
      "Ġimposs": 7176,
      "Ġamend": 7177,
      "Ġspecialty": 7178,
      "Ġconcert": 7179,
      "Ġworkforce": 7180,
      "Ġfollowers": 7181,
      "Ġdonate": 7182,
      "ghan": 7183,
      "Ġprinciple": 7184,
      "Ġduties": 7185,
      "Ġaffiliate": 7186,
      "Ġukraine": 7187,
      "antic": 7188,
      "Ġdensity": 7189,
      "Ġah": 7190,
      "Ġave": 7191,
      "itan": 7192,
      "Ġlbs": 7193,
      "Ġger": 7194,
      "Ġstap": 7195,
      "chen": 7196,
      "Ġki": 7197,
      "Ġqueries": 7198,
      "Ġcolon": 7199,
      "Ġgrab": 7200,
      "Ġmetadata": 7201,
      "Ġretro": 7202,
      "Ġdrinks": 7203,
      "lessly": 7204,
      "Ġaustria": 7205,
      "Ġentities": 7206,
      "ounts": 7207,
      "Ġextraord": 7208,
      "Ġgarage": 7209,
      "Ġconsulting": 7210,
      "Ġscores": 7211,
      "Ġoccurred": 7212,
      "Ġsecretary": 7213,
      "Ġsuggests": 7214,
      "Ġhenry": 7215,
      "Ġnoticed": 7216,
      "Ġhindi": 7217,
      "Ġintervention": 7218,
      "Ġdynamics": 7219,
      "Ġmakeup": 7220,
      "Ġbluetooth": 7221,
      "cm": 7222,
      "uous": 7223,
      "Ġbuc": 7224,
      "Ġfal": 7225,
      "Ġtiny": 7226,
      "abil": 7227,
      "Ġheights": 7228,
      "Ġther": 7229,
      "Ġedited": 7230,
      "Ġdoug": 7231,
      "Ġinfin": 7232,
      "Ġdirected": 7233,
      "Ġpromise": 7234,
      "Ġenhancing": 7235,
      "Ġpickup": 7236,
      "Ġtoroid": 7237,
      "Ġadjustable": 7238,
      "Ġsuspension": 7239,
      "Ġpharmacy": 7240,
      "Ġoffspring": 7241,
      "hand": 7242,
      "wick": 7243,
      "Ġcats": 7244,
      "tition": 7245,
      "ario": 7246,
      "Ġmost": 7247,
      "Ġmild": 7248,
      "asm": 7249,
      "Ġwings": 7250,
      "oming": 7251,
      "Ġket": 7252,
      "ista": 7253,
      "Ġleisure": 7254,
      "thon": 7255,
      "Ġark": 7256,
      "ource": 7257,
      "Ġontar": 7258,
      "Ġgrants": 7259,
      "Ġzh": 7260,
      "Ġhandmade": 7261,
      "Ġelite": 7262,
      "conn": 7263,
      "Ġverification": 7264,
      "Ġbull": 7265,
      "Ġconsideration": 7266,
      "Ġstraw": 7267,
      "Ġachieved": 7268,
      "Ġmedicare": 7269,
      "Ġpalest": 7270,
      "Ġcandy": 7271,
      "Ġcontractors": 7272,
      "Ġsuffering": 7273,
      "Ġbehavi": 7274,
      "Ġgranted": 7275,
      "Ġrepeat": 7276,
      "Ġflavor": 7277,
      "Ġincredibly": 7278,
      "Ġcpu": 7279,
      "Ġillegal": 7280,
      "Ġontario": 7281,
      "oir": 7282,
      "vet": 7283,
      "Ġrip": 7284,
      "Ġpov": 7285,
      "itol": 7286,
      "Ġwad": 7287,
      "Ġnd": 7288,
      "adh": 7289,
      "Ġacres": 7290,
      "Ġclusters": 7291,
      "Ġinteraction": 7292,
      "Ġblocks": 7293,
      "Ġgreece": 7294,
      "Ġframes": 7295,
      "Ġbackp": 7296,
      "Ġcertificates": 7297,
      "Ġcalculated": 7298,
      "Ġrubber": 7299,
      "Ġscientists": 7300,
      "Ġassigned": 7301,
      "Ġrestrictions": 7302,
      "Ġlisa": 7303,
      "Ġdeeper": 7304,
      "Ġknee": 7305,
      "Ġdiscretion": 7306,
      "Ġequivalent": 7307,
      "iable": 7308,
      "wy": 7309,
      "aro": 7310,
      "Ġinduc": 7311,
      "olis": 7312,
      "osc": 7313,
      "Ġshock": 7314,
      "Ġagreed": 7315,
      "owned": 7316,
      "Ġrelative": 7317,
      "Ġmusical": 7318,
      "Ġlegally": 7319,
      "ylv": 7320,
      "Ġmechanism": 7321,
      "Ġmiller": 7322,
      "Ġcolumns": 7323,
      "Ġaggreg": 7324,
      "Ġrecreation": 7325,
      "Ġgorge": 7326,
      "jan": 7327,
      "ui": 7328,
      "Ġpng": 7329,
      "Ġtourn": 7330,
      "Ġcole": 7331,
      "Ġwag": 7332,
      "Ġng": 7333,
      "Ġvotes": 7334,
      "loud": 7335,
      "lyn": 7336,
      "Ġscan": 7337,
      "athers": 7338,
      "Ġdepreciation": 7339,
      "Ġpurple": 7340,
      "Ġexclud": 7341,
      "Ġterminal": 7342,
      "Ġqatar": 7343,
      "Ġconditioning": 7344,
      "Ġinitiative": 7345,
      "Ġsolely": 7346,
      "Ġattractive": 7347,
      "Ġcoconut": 7348,
      "fi": 7349,
      "sen": 7350,
      "td": 7351,
      "Ġside": 7352,
      "Ġsons": 7353,
      "Ġnow": 7354,
      "emble": 7355,
      "Ġlew": 7356,
      "Ġweigh": 7357,
      "Ġbee": 7358,
      "Ġrecr": 7359,
      "Ġyah": 7360,
      "Ġdiabetes": 7361,
      "Ġcharity": 7362,
      "Ġsms": 7363,
      "Ġforced": 7364,
      "Ġsignals": 7365,
      "Ġcoron": 7366,
      "Ġgeometry": 7367,
      "Ġfocusing": 7368,
      "Ġholder": 7369,
      "Ġstronger": 7370,
      "Ġfarmers": 7371,
      "Ġgross": 7372,
      "Ġstrike": 7373,
      "Ġwishes": 7374,
      "Ġpolyester": 7375,
      "Ġpixel": 7376,
      "Ġexpansion": 7377,
      "gation": 7378,
      "pan": 7379,
      "Ġbinding": 7380,
      "Ġtone": 7381,
      "Ġgin": 7382,
      "elts": 7383,
      "ilab": 7384,
      "Ġnba": 7385,
      "Ġunw": 7386,
      "Ġmoore": 7387,
      "Ġamounts": 7388,
      "ologist": 7389,
      "boy": 7390,
      "xxx": 7391,
      "Ġrelating": 7392,
      "Ġelectro": 7393,
      "Ġmultip": 7394,
      "Ġcovering": 7395,
      "Ġscreening": 7396,
      "Ġsensing": 7397,
      "erapy": 7398,
      "Ġwildlife": 7399,
      "Ġcompiler": 7400,
      "Ġslowly": 7401,
      "Ġmuscles": 7402,
      "Ġfellows": 7403,
      "Ġdrama": 7404,
      "Ġislamic": 7405,
      "Ġbangladesh": 7406,
      "bles": 7407,
      "tv": 7408,
      "Ġsulf": 7409,
      "Ġpipe": 7410,
      "Ġfas": 7411,
      "Ġoreg": 7412,
      "Ġrss": 7413,
      "ando": 7414,
      "Ġadequ": 7415,
      "Ġrod": 7416,
      "Ġariz": 7417,
      "Ġcreek": 7418,
      "Ġundert": 7419,
      "Ġdrinking": 7420,
      "Ġdoctors": 7421,
      "Ġlabels": 7422,
      "Ġhappening": 7423,
      "Ġfolks": 7424,
      "Ġirish": 7425,
      "Ġcloser": 7426,
      "Ġchef": 7427,
      "Ġmanufactured": 7428,
      "Ġbehalf": 7429,
      "Ġofficials": 7430,
      "Ġcontractor": 7431,
      "Ġpromotional": 7432,
      "Ġcatholic": 7433,
      "Ġcomplicated": 7434,
      "Ġcellulite": 7435,
      "vious": 7436,
      "Ġsap": 7437,
      "Ġcm": 7438,
      "tite": 7439,
      "Ġdos": 7440,
      "url": 7441,
      "Ġviv": 7442,
      "Ġvene": 7443,
      "ader": 7444,
      "Ġdeemed": 7445,
      "Ġseks": 7446,
      "izations": 7447,
      "itis": 7448,
      "Ġinterpre": 7449,
      "Ġpersonnel": 7450,
      "Ġabund": 7451,
      "Ġcorp": 7452,
      "Ġlogistics": 7453,
      "Ġprotective": 7454,
      "ropri": 7455,
      "Ġchecked": 7456,
      "inois": 7457,
      "Ġsucceed": 7458,
      "Ġanime": 7459,
      "Ġballet": 7460,
      "Ġcrazy": 7461,
      "Ġradi": 7462,
      "Ġfavorites": 7463,
      "Ġrouter": 7464,
      "Ġsuggestions": 7465,
      "Ġdisclaimer": 7466,
      "Ġafternoon": 7467,
      "mail": 7468,
      "side": 7469,
      "tz": 7470,
      "Ġproph": 7471,
      "uter": 7472,
      "Ġrw": 7473,
      "lop": 7474,
      "Ġcomanche": 7475,
      "Ġcreativity": 7476,
      "athering": 7477,
      "Ġschw": 7478,
      "Ġremed": 7479,
      "Ġbred": 7480,
      "Ġtrek": 7481,
      "Ġorganized": 7482,
      "Ġgreg": 7483,
      "Ġoperators": 7484,
      "Ġhob": 7485,
      "Ġreviewed": 7486,
      "Ġexplan": 7487,
      "Ġreplaced": 7488,
      "Ġlayers": 7489,
      "Ġprincipal": 7490,
      "Ġdeposits": 7491,
      "Ġodds": 7492,
      "Ġscenes": 7493,
      "Ġborrow": 7494,
      "Ġfragrance": 7495,
      "Ġfluid": 7496,
      "Ġbritain": 7497,
      "Ġoregon": 7498,
      "Ġcush": 7499,
      "onge": 7500,
      "esc": 7501,
      "Ġaus": 7502,
      "Ġprove": 7503,
      "Ġov": 7504,
      "Ġtire": 7505,
      "Ġserial": 7506,
      "Ġdisable": 7507,
      "Ġloud": 7508,
      "Ġrecap": 7509,
      "Ġvisits": 7510,
      "Ġski": 7511,
      "Ġabor": 7512,
      "ipping": 7513,
      "Ġoutlook": 7514,
      "Ġtob": 7515,
      "Ġharris": 7516,
      "Ġargument": 7517,
      "Ġadvisor": 7518,
      "Ġcrown": 7519,
      "Ġeggs": 7520,
      "Ġchampionship": 7521,
      "Ġmemorial": 7522,
      "Ġsurfaces": 7523,
      "Ġacknowled": 7524,
      "Ġenforcement": 7525,
      "Ġdisplays": 7526,
      "Ġimpossible": 7527,
      "di": 7528,
      "ei": 7529,
      "rison": 7530,
      "requ": 7531,
      "Ġbuck": 7532,
      "Ġtrop": 7533,
      "Ġlore": 7534,
      "ecake": 7535,
      "Ġtires": 7536,
      "Ġcreamp": 7537,
      "Ġagile": 7538,
      "cook": 7539,
      "Ġusual": 7540,
      "boards": 7541,
      "Ġzen": 7542,
      "iki": 7543,
      "Ġmetrop": 7544,
      "Ġaccessed": 7545,
      "Ġcustomize": 7546,
      "Ġprofits": 7547,
      "Ġcoral": 7548,
      "Ġvalve": 7549,
      "Ġworker": 7550,
      "Ġsunrise": 7551,
      "Ġcrafted": 7552,
      "Ġdispatch": 7553,
      "Ġattributes": 7554,
      "Ġfertility": 7555,
      "Ġyeah": 7556,
      "Ġromance": 7557,
      "natural": 7558,
      "Ġcruise": 7559,
      "Ġinterviews": 7560,
      "piec": 7561,
      "sylv": 7562,
      "ict": 7563,
      "ross": 7564,
      "isa": 7565,
      "Ġlang": 7566,
      "Ġhent": 7567,
      "aded": 7568,
      "Ġresin": 7569,
      "Ġaccred": 7570,
      "Ġalan": 7571,
      "Ġthai": 7572,
      "Ġphones": 7573,
      "asted": 7574,
      "Ġweap": 7575,
      "Ġfoam": 7576,
      "shire": 7577,
      "Ġdelivers": 7578,
      "arma": 7579,
      "titch": 7580,
      "bean": 7581,
      "Ġsupervis": 7582,
      "Ġbeneficial": 7583,
      "Ġnetworking": 7584,
      "Ġdealing": 7585,
      "Ġpanels": 7586,
      "Ġimplementing": 7587,
      "Ġbaths": 7588,
      "Ġimmune": 7589,
      "Ġpossess": 7590,
      "Ġshaped": 7591,
      "Ġjennifer": 7592,
      "Ġtissue": 7593,
      "Ġamenities": 7594,
      "Ġif": 7595,
      "alities": 7596,
      "Ġdy": 7597,
      "Ġfilling": 7598,
      "Ġtower": 7599,
      "itors": 7600,
      "Ġgn": 7601,
      "Ġstad": 7602,
      "otech": 7603,
      "Ġkom": 7604,
      "Ġkilled": 7605,
      "Ġroots": 7606,
      "Ġoutcome": 7607,
      "inson": 7608,
      "Ġknit": 7609,
      "Ġpacked": 7610,
      "Ġwarran": 7611,
      "Ġpatrick": 7612,
      "Ġielts": 7613,
      "Ġdrives": 7614,
      "Ġplanned": 7615,
      "Ġpreparing": 7616,
      "Ġembry": 7617,
      "Ġcontribution": 7618,
      "Ġolive": 7619,
      "Ġhydra": 7620,
      "Ġincorrect": 7621,
      "Ġtendency": 7622,
      "Ġranging": 7623,
      "Ġtaught": 7624,
      "Ġalpha": 7625,
      "Ġportugal": 7626,
      "Ġembrace": 7627,
      "Ġconsequences": 7628,
      "Ġphilosophy": 7629,
      "Ġjurisdic": 7630,
      "Ġwarranties": 7631,
      "ein": 7632,
      "ken": 7633,
      "Ġcache": 7634,
      "alia": 7635,
      "Ġbing": 7636,
      "itt": 7637,
      "roc": 7638,
      "ady": 7639,
      "Ġraz": 7640,
      "Ġsco": 7641,
      "Ġalerts": 7642,
      "Ġreplic": 7643,
      "Ġbean": 7644,
      "Ġpara": 7645,
      "Ġintense": 7646,
      "Ġiso": 7647,
      "Ġentering": 7648,
      "Ġreturning": 7649,
      "Ġfloors": 7650,
      "Ġworst": 7651,
      "ontal": 7652,
      "Ġsimon": 7653,
      "Ġnewly": 7654,
      "iju": 7655,
      "Ġrevealed": 7656,
      "commun": 7657,
      "Ġintroduce": 7658,
      "Ġreceipt": 7659,
      "gd": 7660,
      "gie": 7661,
      "pay": 7662,
      "Ġboss": 7663,
      "Ġgps": 7664,
      "Ġworship": 7665,
      "olo": 7666,
      "Ġva": 7667,
      "Ġvess": 7668,
      "Ġrum": 7669,
      "irates": 7670,
      "Ġtrick": 7671,
      "aved": 7672,
      "iller": 7673,
      "Ġalumn": 7674,
      "Ġpermitted": 7675,
      "Ġdecline": 7676,
      "Ġdecking": 7677,
      "Ġsubmission": 7678,
      "Ġstruggle": 7679,
      "Ġinstruction": 7680,
      "Ġsigning": 7681,
      "Ġgenre": 7682,
      "Ġxia": 7683,
      "Ġmatthe": 7684,
      "Ġflour": 7685,
      "Ġtalks": 7686,
      "Ġcritic": 7687,
      "Ġencry": 7688,
      "Ġrelaxation": 7689,
      "Ġauthentication": 7690,
      "iel": 7691,
      "erving": 7692,
      "Ġlosing": 7693,
      "Ġhun": 7694,
      "Ġgathering": 7695,
      "illo": 7696,
      "etts": 7697,
      "ados": 7698,
      "stery": 7699,
      "Ġunus": 7700,
      "ifies": 7701,
      "Ġdischarge": 7702,
      "Ġdisorders": 7703,
      "Ġrepos": 7704,
      "Ġloving": 7705,
      "Ġpepper": 7706,
      "Ġcarl": 7707,
      "Ġconservation": 7708,
      "Ġpolish": 7709,
      "Ġtransmitted": 7710,
      "Ġminilab": 7711,
      "Ġfran": 7712,
      "Ġfiled": 7713,
      "Ġrestore": 7714,
      "Ġcerem": 7715,
      "Ġtwist": 7716,
      "Ġdrain": 7717,
      "Ġidentification": 7718,
      "Ġhomem": 7719,
      "Ġdeeply": 7720,
      "aska": 7721,
      "Ġchemicals": 7722,
      "videos": 7723,
      "Ġvendor": 7724,
      "Ġmetabol": 7725,
      "Ġinterpret": 7726,
      "Ġfindings": 7727,
      "Ġextraordinary": 7728,
      "Ġrecruit": 7729,
      "Ġdod": 7730,
      "Ġdell": 7731,
      "Ġbren": 7732,
      "Ġgained": 7733,
      "Ġnap": 7734,
      "amas": 7735,
      "add": 7736,
      "utors": 7737,
      "Ġfinest": 7738,
      "Ġinstances": 7739,
      "Ġgrew": 7740,
      "Ġobvious": 7741,
      "Ġfacial": 7742,
      "Ġexpressed": 7743,
      "Ġmichelle": 7744,
      "Ġrenov": 7745,
      "Ġrolling": 7746,
      "Ġalexander": 7747,
      "Ġromantic": 7748,
      "Ġartistic": 7749,
      "Ġunauth": 7750,
      "Ġchamber": 7751,
      "bul": 7752,
      "fire": 7753,
      "lan": 7754,
      "rated": 7755,
      "tie": 7756,
      "Ġmason": 7757,
      "atus": 7758,
      "Ġtai": 7759,
      "Ġlod": 7760,
      "Ġhan": 7761,
      "Ġcoal": 7762,
      "Ġgiant": 7763,
      "Ġacting": 7764,
      "Ġenroll": 7765,
      "Ġimpression": 7766,
      "Ġsupposed": 7767,
      "Ġassum": 7768,
      "Ġmeters": 7769,
      "Ġrealize": 7770,
      "news": 7771,
      "Ġannot": 7772,
      "Ġselecting": 7773,
      "Ġbiological": 7774,
      "Ġsilk": 7775,
      "Ġclosing": 7776,
      "Ġmichigan": 7777,
      "Ġoptimize": 7778,
      "Ġinitially": 7779,
      "Ġmotors": 7780,
      "Ġsaat": 7781,
      "description": 7782,
      "Ġtrainer": 7783,
      "Ġattribute": 7784,
      "Ġopinions": 7785,
      "Ġdemonstrate": 7786,
      "Ġsequence": 7787,
      "Ġreproductive": 7788,
      "Ġinclusive": 7789,
      "Ġbureau": 7790,
      "Ġsupreme": 7791,
      "bers": 7792,
      "bility": 7793,
      "how": 7794,
      "qq": 7795,
      "onn": 7796,
      "Ġdm": 7797,
      "Ġrely": 7798,
      "Ġvinc": 7799,
      "irts": 7800,
      "uba": 7801,
      "Ġmariju": 7802,
      "Ġloose": 7803,
      "Ġproducer": 7804,
      "Ġemily": 7805,
      "Ġdecent": 7806,
      "Ġslip": 7807,
      "Ġvariations": 7808,
      "Ġterror": 7809,
      "Ġcambridge": 7810,
      "Ġturk": 7811,
      "Ġrenowned": 7812,
      "Ġindiana": 7813,
      "Ġimmun": 7814,
      "Ġaspen": 7815,
      "Ġworkshops": 7816,
      "guy": 7817,
      "guard": 7818,
      "Ġhorror": 7819,
      "Ġrepeated": 7820,
      "Ġlandscap": 7821,
      "Ġdishes": 7822,
      "Ġlinkedin": 7823,
      "Ġjessica": 7824,
      "Ġpennsylv": 7825,
      "Ġtransparent": 7826,
      "Ġwithdraw": 7827,
      "Ġratings": 7828,
      "Ġguitar": 7829,
      "blo": 7830,
      "cam": 7831,
      "zone": 7832,
      "Ġsony": 7833,
      "Ġsectors": 7834,
      "Ġtamp": 7835,
      "itory": 7836,
      "Ġluke": 7837,
      "Ġhref": 7838,
      "Ġstan": 7839,
      "child": 7840,
      "ulum": 7841,
      "agues": 7842,
      "ritis": 7843,
      "Ġkelly": 7844,
      "Ġunexp": 7845,
      "Ġanat": 7846,
      "Ġroy": 7847,
      "Ġreserv": 7848,
      "Ġtraits": 7849,
      "ovo": 7850,
      "Ġelastic": 7851,
      "Ġslim": 7852,
      "Ġdowntown": 7853,
      "Ġlabs": 7854,
      "Ġfaced": 7855,
      "Ġhighway": 7856,
      "Ġtablet": 7857,
      "Ġjacket": 7858,
      "Ġreduces": 7859,
      "Ġpinter": 7860,
      "Ġbrazilian": 7861,
      "Ġprocure": 7862,
      "Ġreversion": 7863,
      "burn": 7864,
      "can": 7865,
      "turing": 7866,
      "wash": 7867,
      "watch": 7868,
      "inery": 7869,
      "rett": 7870,
      "Ġmerg": 7871,
      "Ġkidney": 7872,
      "Ġships": 7873,
      "allas": 7874,
      "Ġpref": 7875,
      "Ġdism": 7876,
      "Ġmonster": 7877,
      "Ġinvite": 7878,
      "Ġinstantly": 7879,
      "Ġtimely": 7880,
      "Ġxbox": 7881,
      "Ġsinger": 7882,
      "Ġlottery": 7883,
      "enna": 7884,
      "Ġfocuses": 7885,
      "Ġphysic": 7886,
      "uffle": 7887,
      "Ġcandles": 7888,
      "Ġcooling": 7889,
      "Ġpleased": 7890,
      "Ġdimension": 7891,
      "Ġdrops": 7892,
      "Ġlynn": 7893,
      "Ġfacilitate": 7894,
      "Ġlinear": 7895,
      "Ġtodd": 7896,
      "Ġsilicone": 7897,
      "Ġmarijuana": 7898,
      "iries": 7899,
      "Ġons": 7900,
      "orous": 7901,
      "Ġdent": 7902,
      "Ġbones": 7903,
      "Ġaed": 7904,
      "Ġfell": 7905,
      "Ġworse": 7906,
      "igen": 7907,
      "ulating": 7908,
      "Ġkre": 7909,
      "Ġkaz": 7910,
      "achus": 7911,
      "Ġindirect": 7912,
      "Ġmons": 7913,
      "Ġtransit": 7914,
      "Ġcompanion": 7915,
      "anka": 7916,
      "Ġviewed": 7917,
      "Ġbelle": 7918,
      "Ġinvestor": 7919,
      "esterday": 7920,
      "Ġsammy": 7921,
      "Ġexamination": 7922,
      "Ġpenet": 7923,
      "Ġluxurious": 7924,
      "Ġreliability": 7925,
      "Ġofficers": 7926,
      "Ġabsolute": 7927,
      "Ġhorny": 7928,
      "ktok": 7929,
      "Ġeliminate": 7930,
      "Ġneutral": 7931,
      "Ġlegitimate": 7932,
      "Ġwholesale": 7933,
      "dj": 7934,
      "orph": 7935,
      "rim": 7936,
      "ateful": 7937,
      "ocking": 7938,
      "Ġseaf": 7939,
      "Ġbrilli": 7940,
      "Ġzoo": 7941,
      "Ġretention": 7942,
      "Ġintensive": 7943,
      "Ġcurric": 7944,
      "Ġcurious": 7945,
      "Ġlaura": 7946,
      "Ġheader": 7947,
      "Ġsystem": 7948,
      "Ġsummit": 7949,
      "Ġcombine": 7950,
      "Ġcancell": 7951,
      "Ġdifferential": 7952,
      "Ġfeeding": 7953,
      "Ġarrival": 7954,
      "Ġpharmac": 7955,
      "Ġmandatory": 7956,
      "Ġblowjob": 7957,
      "Ġlauren": 7958,
      "Ġieee": 7959,
      "Ġbacteria": 7960,
      "Ġpennsylvania": 7961,
      "Ġpinterest": 7962,
      "achusetts": 7963,
      "Ġpour": 7964,
      "Ġwins": 7965,
      "Ġvig": 7966,
      "Ġkur": 7967,
      "Ġcommons": 7968,
      "Ġreverse": 7969,
      "Ġsecured": 7970,
      "Ġclassroom": 7971,
      "Ġdiscrimin": 7972,
      "Ġouts": 7973,
      "Ġspecialists": 7974,
      "Ġresponsive": 7975,
      "Ġjean": 7976,
      "Ġexperiencing": 7977,
      "Ġseasonal": 7978,
      "Ġexplains": 7979,
      "Ġcircular": 7980,
      "mouth": 7981,
      "Ġhartman": 7982,
      "Ġsweden": 7983,
      "Ġmiami": 7984,
      "Ġxnxx": 7985,
      "Ġexterior": 7986,
      "mans": 7987,
      "Ġpant": 7988,
      "aria": 7989,
      "oral": 7990,
      "Ġaids": 7991,
      "Ġtin": 7992,
      "isk": 7993,
      "Ġwax": 7994,
      "Ġnico": 7995,
      "Ġspic": 7996,
      "Ġcomedy": 7997,
      "Ġproductions": 7998,
      "Ġrecall": 7999
    },
    "merges": [
      [
        "i",
        "n"
      ],
      [
        "e",
        "r"
      ],
      [
        "Ġ",
        "s"
      ],
      [
        "Ġ",
        "c"
      ],
      [
        "o",
        "n"
      ],
      [
        "r",
        "e"
      ],
      [
        "Ġ",
        "p"
      ],
      [
        "t",
        "i"
      ],
      [
        "e",
        "s"
      ],
      [
        "e",
        "n"
      ],
      [
        "a",
        "n"
      ],
      [
        "a",
        "l"
      ],
      [
        "a",
        "r"
      ],
      [
        "o",
        "r"
      ],
      [
        "Ġ",
        "d"
      ],
      [
        "e",
        "d"
      ],
      [
        "in",
        "g"
      ],
      [
        "Ġ",
        "m"
      ],
      [
        "Ġ",
        "b"
      ],
      [
        "Ġ",
        "a"
      ],
      [
        "a",
        "t"
      ],
      [
        "Ġ",
        "f"
      ],
      [
        "l",
        "e"
      ],
      [
        "Ġ",
        "t"
      ],
      [
        "i",
        "c"
      ],
      [
        "ti",
        "on"
      ],
      [
        "i",
        "t"
      ],
      [
        "r",
        "o"
      ],
      [
        "i",
        "s"
      ],
      [
        "Ġ",
        "re"
      ],
      [
        "Ġ",
        "l"
      ],
      [
        "Ġ",
        "e"
      ],
      [
        "en",
        "t"
      ],
      [
        "Ġ",
        "h"
      ],
      [
        "a",
        "s"
      ],
      [
        "Ġc",
        "o"
      ],
      [
        "Ġ",
        "g"
      ],
      [
        "e",
        "l"
      ],
      [
        "a",
        "c"
      ],
      [
        "u",
        "n"
      ],
      [
        "i",
        "l"
      ],
      [
        "Ġ",
        "w"
      ],
      [
        "Ġ",
        "n"
      ],
      [
        "u",
        "s"
      ],
      [
        "u",
        "r"
      ],
      [
        "Ġ",
        "in"
      ],
      [
        "e",
        "c"
      ],
      [
        "e",
        "t"
      ],
      [
        "er",
        "s"
      ],
      [
        "Ġs",
        "t"
      ],
      [
        "a",
        "tion"
      ],
      [
        "o",
        "l"
      ],
      [
        "a",
        "m"
      ],
      [
        "i",
        "d"
      ],
      [
        "o",
        "t"
      ],
      [
        "Ġ",
        "v"
      ],
      [
        "Ġp",
        "ro"
      ],
      [
        "a",
        "d"
      ],
      [
        "Ġ",
        "o"
      ],
      [
        "i",
        "g"
      ],
      [
        "c",
        "e"
      ],
      [
        "c",
        "h"
      ],
      [
        "Ġc",
        "on"
      ],
      [
        "m",
        "p"
      ],
      [
        "s",
        "t"
      ],
      [
        "Ġc",
        "h"
      ],
      [
        "u",
        "l"
      ],
      [
        "a",
        "g"
      ],
      [
        "r",
        "i"
      ],
      [
        "m",
        "ent"
      ],
      [
        "u",
        "t"
      ],
      [
        "a",
        "y"
      ],
      [
        "v",
        "e"
      ],
      [
        "a",
        "b"
      ],
      [
        "p",
        "p"
      ],
      [
        "es",
        "s"
      ],
      [
        "Ġ",
        "r"
      ],
      [
        "o",
        "m"
      ],
      [
        "t",
        "s"
      ],
      [
        "an",
        "d"
      ],
      [
        "l",
        "o"
      ],
      [
        "Ġ",
        "j"
      ],
      [
        "t",
        "er"
      ],
      [
        "Ġe",
        "x"
      ],
      [
        "q",
        "u"
      ],
      [
        "l",
        "y"
      ],
      [
        "it",
        "y"
      ],
      [
        "Ġ",
        "k"
      ],
      [
        "o",
        "s"
      ],
      [
        "i",
        "r"
      ],
      [
        "at",
        "e"
      ],
      [
        "u",
        "c"
      ],
      [
        "Ġd",
        "e"
      ],
      [
        "o",
        "d"
      ],
      [
        "r",
        "a"
      ],
      [
        "u",
        "re"
      ],
      [
        "o",
        "p"
      ],
      [
        "Ġs",
        "h"
      ],
      [
        "or",
        "t"
      ],
      [
        "f",
        "f"
      ],
      [
        "i",
        "on"
      ],
      [
        "is",
        "t"
      ],
      [
        "Ġs",
        "p"
      ],
      [
        "o",
        "c"
      ],
      [
        "u",
        "m"
      ],
      [
        "Ġa",
        "c"
      ],
      [
        "Ġs",
        "e"
      ],
      [
        "Ġa",
        "d"
      ],
      [
        "e",
        "m"
      ],
      [
        "Ġ",
        "le"
      ],
      [
        "ti",
        "c"
      ],
      [
        "s",
        "s"
      ],
      [
        "a",
        "p"
      ],
      [
        "i",
        "es"
      ],
      [
        "Ġ",
        "en"
      ],
      [
        "i",
        "m"
      ],
      [
        "v",
        "er"
      ],
      [
        "ar",
        "t"
      ],
      [
        "u",
        "b"
      ],
      [
        "i",
        "e"
      ],
      [
        "Ġ",
        "un"
      ],
      [
        "a",
        "re"
      ],
      [
        "ar",
        "d"
      ],
      [
        "u",
        "d"
      ],
      [
        "Ġn",
        "ot"
      ],
      [
        "a",
        "in"
      ],
      [
        "Ġ",
        "ti"
      ],
      [
        "in",
        "e"
      ],
      [
        "o",
        "g"
      ],
      [
        "o",
        "w"
      ],
      [
        "i",
        "f"
      ],
      [
        "es",
        "t"
      ],
      [
        "Ġco",
        "mp"
      ],
      [
        "t",
        "h"
      ],
      [
        "ag",
        "e"
      ],
      [
        "i",
        "p"
      ],
      [
        "Ġp",
        "l"
      ],
      [
        "en",
        "d"
      ],
      [
        "Ġcon",
        "t"
      ],
      [
        "Ġco",
        "m"
      ],
      [
        "Ġt",
        "r"
      ],
      [
        "i",
        "z"
      ],
      [
        "Ġ",
        "an"
      ],
      [
        "ig",
        "h"
      ],
      [
        "ic",
        "e"
      ],
      [
        "al",
        "l"
      ],
      [
        "g",
        "e"
      ],
      [
        "i",
        "v"
      ],
      [
        "i",
        "a"
      ],
      [
        "i",
        "al"
      ],
      [
        "id",
        "e"
      ],
      [
        "p",
        "er"
      ],
      [
        "us",
        "t"
      ],
      [
        "Ġp",
        "re"
      ],
      [
        "a",
        "k"
      ],
      [
        "ec",
        "t"
      ],
      [
        "Ġh",
        "e"
      ],
      [
        "ac",
        "k"
      ],
      [
        "Ġ",
        "ro"
      ],
      [
        "o",
        "k"
      ],
      [
        "Ġa",
        "pp"
      ],
      [
        "Ġs",
        "er"
      ],
      [
        "tion",
        "s"
      ],
      [
        "ab",
        "le"
      ],
      [
        "m",
        "e"
      ],
      [
        "an",
        "ce"
      ],
      [
        "or",
        "m"
      ],
      [
        "Ġc",
        "l"
      ],
      [
        "an",
        "t"
      ],
      [
        "Ġs",
        "u"
      ],
      [
        "Ġre",
        "s"
      ],
      [
        "Ġb",
        "o"
      ],
      [
        "Ġ",
        "ar"
      ],
      [
        "i",
        "re"
      ],
      [
        "as",
        "s"
      ],
      [
        "an",
        "s"
      ],
      [
        "ation",
        "s"
      ],
      [
        "en",
        "ce"
      ],
      [
        "r",
        "y"
      ],
      [
        "o",
        "ur"
      ],
      [
        "a",
        "il"
      ],
      [
        "c",
        "t"
      ],
      [
        "Ġp",
        "r"
      ],
      [
        "Ġd",
        "is"
      ],
      [
        "d",
        "uc"
      ],
      [
        "a",
        "v"
      ],
      [
        "en",
        "s"
      ],
      [
        "Ġm",
        "ar"
      ],
      [
        "Ġ",
        "qu"
      ],
      [
        "o",
        "us"
      ],
      [
        "Ġt",
        "e"
      ],
      [
        "ti",
        "ve"
      ],
      [
        "i",
        "b"
      ],
      [
        "Ġs",
        "c"
      ],
      [
        "un",
        "d"
      ],
      [
        "ac",
        "t"
      ],
      [
        "ig",
        "n"
      ],
      [
        "Ġac",
        "c"
      ],
      [
        "il",
        "l"
      ],
      [
        "el",
        "l"
      ],
      [
        "u",
        "p"
      ],
      [
        "at",
        "ed"
      ],
      [
        "Ġf",
        "e"
      ],
      [
        "or",
        "d"
      ],
      [
        "Ġco",
        "l"
      ],
      [
        "an",
        "c"
      ],
      [
        "ac",
        "h"
      ],
      [
        "or",
        "s"
      ],
      [
        "v",
        "el"
      ],
      [
        "Ġ",
        "al"
      ],
      [
        "igh",
        "t"
      ],
      [
        "is",
        "h"
      ],
      [
        "ar",
        "y"
      ],
      [
        "Ġser",
        "v"
      ],
      [
        "Ġt",
        "h"
      ],
      [
        "i",
        "mp"
      ],
      [
        "t",
        "e"
      ],
      [
        "Ġcom",
        "m"
      ],
      [
        "o",
        "st"
      ],
      [
        "k",
        "s"
      ],
      [
        "o",
        "re"
      ],
      [
        "Ġc",
        "re"
      ],
      [
        "e",
        "y"
      ],
      [
        "Ġp",
        "h"
      ],
      [
        "u",
        "g"
      ],
      [
        "Ġp",
        "er"
      ],
      [
        "Ġin",
        "d"
      ],
      [
        "un",
        "t"
      ],
      [
        "Ġin",
        "c"
      ],
      [
        "ic",
        "al"
      ],
      [
        "Ġm",
        "o"
      ],
      [
        "w",
        "s"
      ],
      [
        "Ġre",
        "p"
      ],
      [
        "Ġti",
        "me"
      ],
      [
        "i",
        "ti"
      ],
      [
        "l",
        "ic"
      ],
      [
        "Ġd",
        "es"
      ],
      [
        "Ġo",
        "ff"
      ],
      [
        "an",
        "g"
      ],
      [
        "as",
        "t"
      ],
      [
        "i",
        "ve"
      ],
      [
        "i",
        "tion"
      ],
      [
        "Ġl",
        "o"
      ],
      [
        "Ġad",
        "d"
      ],
      [
        "u",
        "e"
      ],
      [
        "Ġpro",
        "duc"
      ],
      [
        "ment",
        "s"
      ],
      [
        "Ġw",
        "e"
      ],
      [
        "Ġb",
        "r"
      ],
      [
        "re",
        "n"
      ],
      [
        "re",
        "ss"
      ],
      [
        "e",
        "p"
      ],
      [
        "u",
        "al"
      ],
      [
        "Ġex",
        "p"
      ],
      [
        "Ġm",
        "on"
      ],
      [
        "ac",
        "e"
      ],
      [
        "at",
        "h"
      ],
      [
        "Ġs",
        "o"
      ],
      [
        "Ġd",
        "ay"
      ],
      [
        "Ġ",
        "or"
      ],
      [
        "b",
        "er"
      ],
      [
        "Ġin",
        "ter"
      ],
      [
        "Ġb",
        "e"
      ],
      [
        "l",
        "es"
      ],
      [
        "or",
        "y"
      ],
      [
        "is",
        "s"
      ],
      [
        "ent",
        "s"
      ],
      [
        "Ġb",
        "l"
      ],
      [
        "ec",
        "h"
      ],
      [
        "Ġre",
        "c"
      ],
      [
        "il",
        "d"
      ],
      [
        "Ġp",
        "e"
      ],
      [
        "Ġm",
        "an"
      ],
      [
        "Ġn",
        "e"
      ],
      [
        "r",
        "am"
      ],
      [
        "Ġe",
        "m"
      ],
      [
        "at",
        "er"
      ],
      [
        "Ġ",
        "imp"
      ],
      [
        "o",
        "ol"
      ],
      [
        "ul",
        "t"
      ],
      [
        "ic",
        "es"
      ],
      [
        "in",
        "d"
      ],
      [
        "ing",
        "s"
      ],
      [
        "Ġa",
        "m"
      ],
      [
        "Ġp",
        "ar"
      ],
      [
        "i",
        "an"
      ],
      [
        "Ġd",
        "at"
      ],
      [
        "p",
        "h"
      ],
      [
        "Ġre",
        "g"
      ],
      [
        "en",
        "c"
      ],
      [
        "on",
        "s"
      ],
      [
        "as",
        "e"
      ],
      [
        "Ġ",
        "y"
      ],
      [
        "y",
        "p"
      ],
      [
        "ie",
        "w"
      ],
      [
        "al",
        "s"
      ],
      [
        "f",
        "orm"
      ],
      [
        "k",
        "et"
      ],
      [
        "ol",
        "d"
      ],
      [
        "Ġa",
        "g"
      ],
      [
        "Ġp",
        "ers"
      ],
      [
        "lo",
        "w"
      ],
      [
        "it",
        "e"
      ],
      [
        "Ġd",
        "ec"
      ],
      [
        "Ġsu",
        "pp"
      ],
      [
        "Ġc",
        "ar"
      ],
      [
        "p",
        "t"
      ],
      [
        "t",
        "t"
      ],
      [
        "ut",
        "h"
      ],
      [
        "Ġa",
        "ss"
      ],
      [
        "r",
        "ic"
      ],
      [
        "Ġcon",
        "s"
      ],
      [
        "Ġe",
        "v"
      ],
      [
        "en",
        "ti"
      ],
      [
        "Ġm",
        "e"
      ],
      [
        "Ġb",
        "us"
      ],
      [
        "Ġg",
        "u"
      ],
      [
        "Ġs",
        "ch"
      ],
      [
        "a",
        "ti"
      ],
      [
        "y",
        "s"
      ],
      [
        "Ġf",
        "in"
      ],
      [
        "as",
        "h"
      ],
      [
        "Ġf",
        "o"
      ],
      [
        "Ġp",
        "ol"
      ],
      [
        "ic",
        "k"
      ],
      [
        "le",
        "ct"
      ],
      [
        "it",
        "s"
      ],
      [
        "c",
        "ess"
      ],
      [
        "Ġ",
        "ed"
      ],
      [
        "or",
        "n"
      ],
      [
        "Ġt",
        "ra"
      ],
      [
        "at",
        "ing"
      ],
      [
        "Ġex",
        "per"
      ],
      [
        "Ġpro",
        "v"
      ],
      [
        "Ġtr",
        "ans"
      ],
      [
        "Ġp",
        "ost"
      ],
      [
        "s",
        "h"
      ],
      [
        "i",
        "le"
      ],
      [
        "a",
        "w"
      ],
      [
        "or",
        "k"
      ],
      [
        "Ġm",
        "od"
      ],
      [
        "il",
        "ity"
      ],
      [
        "Ġs",
        "ub"
      ],
      [
        "l",
        "ine"
      ],
      [
        "Ġst",
        "r"
      ],
      [
        "Ġj",
        "o"
      ],
      [
        "Ġsp",
        "ec"
      ],
      [
        "f",
        "t"
      ],
      [
        "iti",
        "es"
      ],
      [
        "at",
        "ure"
      ],
      [
        "in",
        "ess"
      ],
      [
        "ol",
        "og"
      ],
      [
        "Ġ",
        "on"
      ],
      [
        "Ġo",
        "p"
      ],
      [
        "Ġpers",
        "on"
      ],
      [
        "ar",
        "n"
      ],
      [
        "Ġm",
        "ed"
      ],
      [
        "Ġg",
        "r"
      ],
      [
        "c",
        "tion"
      ],
      [
        "on",
        "e"
      ],
      [
        "an",
        "n"
      ],
      [
        "Ġin",
        "s"
      ],
      [
        "Ġm",
        "in"
      ],
      [
        "Ġre",
        "m"
      ],
      [
        "Ġre",
        "qu"
      ],
      [
        "c",
        "o"
      ],
      [
        "Ġin",
        "v"
      ],
      [
        "i",
        "ence"
      ],
      [
        "Ġb",
        "as"
      ],
      [
        "al",
        "ly"
      ],
      [
        "Ġst",
        "ud"
      ],
      [
        "f",
        "ul"
      ],
      [
        "Ġb",
        "u"
      ],
      [
        "Ġb",
        "ro"
      ],
      [
        "ri",
        "v"
      ],
      [
        "Ġl",
        "oc"
      ],
      [
        "Ġ",
        "us"
      ],
      [
        "b",
        "o"
      ],
      [
        "an",
        "ge"
      ],
      [
        "al",
        "th"
      ],
      [
        "Ġdat",
        "a"
      ],
      [
        "Ġt",
        "ech"
      ],
      [
        "ar",
        "ch"
      ],
      [
        "on",
        "g"
      ],
      [
        "Ġbus",
        "iness"
      ],
      [
        "Ġd",
        "i"
      ],
      [
        "a",
        "x"
      ],
      [
        "ow",
        "n"
      ],
      [
        "Ġ",
        "z"
      ],
      [
        "if",
        "e"
      ],
      [
        "Ġs",
        "et"
      ],
      [
        "Ġre",
        "ad"
      ],
      [
        "Ġt",
        "yp"
      ],
      [
        "Ġ",
        "it"
      ],
      [
        "i",
        "k"
      ],
      [
        "Ġg",
        "am"
      ],
      [
        "Ġd",
        "el"
      ],
      [
        "Ġg",
        "o"
      ],
      [
        "er",
        "m"
      ],
      [
        "i",
        "o"
      ],
      [
        "at",
        "es"
      ],
      [
        "Ġm",
        "et"
      ],
      [
        "ort",
        "h"
      ],
      [
        "Ġch",
        "ar"
      ],
      [
        "Ġpl",
        "ay"
      ],
      [
        "l",
        "and"
      ],
      [
        "ur",
        "n"
      ],
      [
        "a",
        "f"
      ],
      [
        "Ġen",
        "g"
      ],
      [
        "in",
        "t"
      ],
      [
        "Ġhe",
        "alth"
      ],
      [
        "Ġre",
        "t"
      ],
      [
        "Ġin",
        "st"
      ],
      [
        "Ġn",
        "o"
      ],
      [
        "Ġpe",
        "op"
      ],
      [
        "al",
        "e"
      ],
      [
        "Ġd",
        "et"
      ],
      [
        "Ġpro",
        "g"
      ],
      [
        "ti",
        "v"
      ],
      [
        "Ġdes",
        "ign"
      ],
      [
        "b",
        "s"
      ],
      [
        "ation",
        "al"
      ],
      [
        "Ġad",
        "v"
      ],
      [
        "Ġpeop",
        "le"
      ],
      [
        "on",
        "d"
      ],
      [
        "Ġf",
        "l"
      ],
      [
        "Ġs",
        "y"
      ],
      [
        "a",
        "ir"
      ],
      [
        "Ġacc",
        "ess"
      ],
      [
        "Ġc",
        "ust"
      ],
      [
        "t",
        "y"
      ],
      [
        "am",
        "p"
      ],
      [
        "Ġv",
        "is"
      ],
      [
        "Ġs",
        "k"
      ],
      [
        "Ġtech",
        "n"
      ],
      [
        "f",
        "er"
      ],
      [
        "Ġcust",
        "om"
      ],
      [
        "Ġf",
        "r"
      ],
      [
        "at",
        "ch"
      ],
      [
        "Ġre",
        "v"
      ],
      [
        "a",
        "z"
      ],
      [
        "it",
        "ed"
      ],
      [
        "Ġde",
        "p"
      ],
      [
        "l",
        "i"
      ],
      [
        "iz",
        "e"
      ],
      [
        "ion",
        "s"
      ],
      [
        "Ġserv",
        "ices"
      ],
      [
        "Ġs",
        "w"
      ],
      [
        "vel",
        "op"
      ],
      [
        "Ġon",
        "line"
      ],
      [
        "Ġcomp",
        "an"
      ],
      [
        "Ġp",
        "ub"
      ],
      [
        "e",
        "k"
      ],
      [
        "Ġp",
        "ur"
      ],
      [
        "ro",
        "w"
      ],
      [
        "a",
        "h"
      ],
      [
        "Ġs",
        "ec"
      ],
      [
        "Ġpro",
        "f"
      ],
      [
        "Ġl",
        "in"
      ],
      [
        "is",
        "e"
      ],
      [
        "Ġserv",
        "ice"
      ],
      [
        "Ġde",
        "velop"
      ],
      [
        "ri",
        "b"
      ],
      [
        "Ġc",
        "are"
      ],
      [
        "Ġf",
        "un"
      ],
      [
        "Ġv",
        "ide"
      ],
      [
        "l",
        "ish"
      ],
      [
        "x",
        "x"
      ],
      [
        "Ġc",
        "ent"
      ],
      [
        "Ġf",
        "orm"
      ],
      [
        "Ġw",
        "h"
      ],
      [
        "al",
        "ity"
      ],
      [
        "Ġmar",
        "ket"
      ],
      [
        "g",
        "an"
      ],
      [
        "l",
        "ud"
      ],
      [
        "Ġ",
        "im"
      ],
      [
        "Ġex",
        "t"
      ],
      [
        "Ġin",
        "t"
      ],
      [
        "Ġb",
        "lo"
      ],
      [
        "Ġse",
        "arch"
      ],
      [
        "Ġe",
        "ff"
      ],
      [
        "en",
        "e"
      ],
      [
        "t",
        "ing"
      ],
      [
        "Ġa",
        "tt"
      ],
      [
        "s",
        "e"
      ],
      [
        "Ġs",
        "ol"
      ],
      [
        "Ġb",
        "re"
      ],
      [
        "el",
        "y"
      ],
      [
        "ul",
        "ar"
      ],
      [
        "os",
        "e"
      ],
      [
        "Ġ",
        "is"
      ],
      [
        "Ġsupp",
        "ort"
      ],
      [
        "an",
        "k"
      ],
      [
        "Ġun",
        "d"
      ],
      [
        "a",
        "tive"
      ],
      [
        "Ġh",
        "and"
      ],
      [
        "ow",
        "er"
      ],
      [
        "ti",
        "m"
      ],
      [
        "Ġpro",
        "cess"
      ],
      [
        "Ġ",
        "up"
      ],
      [
        "Ġcomm",
        "un"
      ],
      [
        "er",
        "n"
      ],
      [
        "ic",
        "h"
      ],
      [
        "Ġprog",
        "ram"
      ],
      [
        "j",
        "ect"
      ],
      [
        "Ġt",
        "re"
      ],
      [
        "Ġl",
        "ife"
      ],
      [
        "Ġco",
        "unt"
      ],
      [
        "el",
        "d"
      ],
      [
        "Ġd",
        "o"
      ],
      [
        "il",
        "y"
      ],
      [
        "Ġs",
        "ur"
      ],
      [
        "ec",
        "k"
      ],
      [
        "Ġrequ",
        "ire"
      ],
      [
        "l",
        "ed"
      ],
      [
        "iv",
        "ers"
      ],
      [
        "b",
        "r"
      ],
      [
        "Ġres",
        "p"
      ],
      [
        "Ġp",
        "ay"
      ],
      [
        "a",
        "pp"
      ],
      [
        "Ġs",
        "oc"
      ],
      [
        "Ġe",
        "mp"
      ],
      [
        "o",
        "v"
      ],
      [
        "et",
        "s"
      ],
      [
        "Ġcont",
        "act"
      ],
      [
        "em",
        "s"
      ],
      [
        "t",
        "ed"
      ],
      [
        "Ġc",
        "r"
      ],
      [
        "t",
        "on"
      ],
      [
        "Ġc",
        "ap"
      ],
      [
        "Ġinter",
        "n"
      ],
      [
        "Ġinc",
        "lud"
      ],
      [
        "Ġpr",
        "ice"
      ],
      [
        "Ġl",
        "ist"
      ],
      [
        "Ġs",
        "m"
      ],
      [
        "olog",
        "y"
      ],
      [
        "Ġw",
        "r"
      ],
      [
        "Ġin",
        "f"
      ],
      [
        "Ġsch",
        "ool"
      ],
      [
        "Ġre",
        "l"
      ],
      [
        "re",
        "d"
      ],
      [
        "Ġ",
        "ent"
      ],
      [
        "Ġp",
        "art"
      ],
      [
        "Ġf",
        "il"
      ],
      [
        "ot",
        "h"
      ],
      [
        "Ġa",
        "b"
      ],
      [
        "Ġf",
        "am"
      ],
      [
        "Ġst",
        "art"
      ],
      [
        "ro",
        "l"
      ],
      [
        "Ġday",
        "s"
      ],
      [
        "Ġp",
        "ass"
      ],
      [
        "ri",
        "p"
      ],
      [
        "Ġde",
        "f"
      ],
      [
        "Ġcl",
        "ass"
      ],
[...]
